� �
Ġ t
h e
� �
Ģ �
� Ģ�
� �Ģ�
Ġ a
i n
Ġ s
Ġ w
Ġt he
o u
r e
Ġ h
o n
Ġ b
e d
e r
âĢ� �
a r
in g
Ġ �
Ġ� �
n d
Ġ f
âĢ� �
l l
âĢ� �
Ġ H
Ġt o
Ġ c
Ġ o
i t
a t
l e
a s
i d
i s
o r
Ġ d
Ġ he
Ġ m
Ġa nd
Ġt h
r y
e n
Ġ g
Ġ l
Ġ p
Ġo f
Ġh a
Ġ n
Ġ y
ar ry
Ġ in
o w
Ġw as
o o
a n
o t
o m
e s
Ġb e
Ġs a
Ġ on
ĠH arry
g h
Ġy ou
l d
c k
Ġs t
Ġ it
l y
Ġ e
e t
Ġh is
Ġ I
Ġ âĢ�
s t
ĠâĢ� �
i m
v e
i r
v er
r o
Ġsa id
u t
Ġ u
a g
ou t
Ġw h
Ġ âĢľ
Ġha d
. âĢĿ
, âĢĿ
c h
gh t
s e
Ġw e
r i
o k
a d
on e
T he
Ġth at
Ġa s
a y
Ġa t
Ġ k
a m
Ġ S
Ġh im
c e
Ġa n
ou ld
e e
a ll
o ok
Ġ re
Ġ M
a l
Ġ P
Ġthe y
? âĢĿ
Ġ D
u r
o re
a k
he r
Ġw it
ar d
Ġ R
Ġf or
t er
Ġwit h
p e
re d
Ġ le
r ou
r id
en t
ĠH e
a ck
Ġs h
Ġ out
Ġn e
Ġg o
ĠR on
in d
i ll
Ġd o
Ġu p
Ġl i
Ġl ook
u n
Ġk n
p p
ag rid
Ġb ut
Ġa ll
r a
u m
l ed
Ġthe m
Ġwe re
u d
Ġ The
Ġ .
Ġn ot
h ing
m i
ver y
Ġ A
Ġ F
i f
i ght
ĠH agrid
le y
Ġm e
Ġf r
Ġc ould
Ġ W
Ġ j
om e
Ġha ve
Ġ G
u st
l o
Ġd id
ar t
t o
o d
! âĢĿ
e ll
as t
Ġ N
Ġb ack
i l
mi one
er mione
a nd
Ġwh at
Ġa b
o y
H arry
Ġs ee
i c
an t
i ck
a in
Ġs o
Ġs e
Ġw he
ow n
f f
he d
c t
es s
Ġfr om
Ġon e
rou nd
Ġg et
ĠH ermione
Ġthe re
Ġ. .
o p
u s
Ġa l
k e
Ġkn ow
v en
Ġin to
s s
Ġn o
Ġ r
q u
Ġab out
in k
Ġof f
Ġg ot
a u
Ġbe en
Ġan y
Ġ ro
n a
b le
Ġs he
g e
Ġ C
am e
Ġth is
Ġthe ir
um b
i on
id e
Y ou
Q u
Ġwh o
ou s
Ġy e
Ġ if
Ġdid n
o l
Ġf e
Ġd own
Ġli ke
Ġo ver
ak e
Ġ B
Ġhe r
Ġe x
w ay
Ġth ou
ro f
ess or
Ġp o
Ġ is
rof essor
h at
t her
Ġ Qu
Ġt w
Ġ T
ou r
umb led
na pe
Ġlook ed
pp ed
er s
Ġa g
Ġ qu
or t
on g
i g
ĠI t
is t
Ġ V
l f
k ed
Ġp l
Ġ very
Ġyou r
i e
Ġj ust
umbled ore
Ġw ould
Ġw or
as s
Ġs p
Ġ.. .
i z
H e
Ġf a
Ġc l
u ll
ĠP rofessor
ri ght
ĠS nape
om et
Ġa re
l ing
p t
n t
i ce
Ġ v
Ġs u
es t
Ġc h
Ġth ink
Ġb y
er n
Ġwhe n
Ġa round
t ing
ĠD umbledore
ud ley
c le
Ġwh i
Ġt im
o st
Ġt e
ur n
Ġc an
re e
Ġs ome
Ġdo or
al f
Ġs omet
Ġgo ing
all y
w ard
on d
Ġsa y
Ġha nd
Ġag ain
an g
Ġu s
e v
Ġw ant
Ġd on
ĠD udley
rou gh
ou nd
Ġd e
f e
c hed
alf oy
Ġle t
Ġn ow
o ld
Ġe y
e red
ur s
re ll
I t
Ġhe ad
Ġb l
n cle
a re
a p
Ġsomet hing
Ġs c
u l
u ff
re at
Ġth rough
Ġp e
Ġtim e
ri ed
ot her
ir st
ill e
Ġo r
ev ille
ee p
Ġthe n
Ġh ow
ern on
Ġt urn
Ġbe c
a red
ĠV ernon
ĠP ot
ir rell
Ġ right
ro om
Ġne ver
f t
U ncle
Ġt er
Ġhe re
Ġc om
b b
it e
in t
f ore
at e
ar k
Ġm y
Ġm ore
Ġf irst
Ġe very
x t
ar s
Ġth an
ĠM alfoy
Ġ âĢĿ
m e
Ġo w
ĠThe y
ĠM r
Ġye h
Ġe ven
urs ley
se lf
i ve
Ġs w
Ġo ther
Ġey es
Ġcould n
m b
d en
ĠD ursley
ot t
o od
Ġf l
ĠM c
Ġ O
Ġ L
v es
Ġt ry
Ġon ly
Ġbe fore
ĠN eville
ĠMc G
v ed
t hing
s ide
o g
m ed
it t
Ġw ay
Ġth ing
ĠMcG on
ĠMcGon ag
ĠMcGonag all
at ch
ĠPot ter
i re
Ġto o
Ġlook ing
Ġb oy
Ġa r
or n
Ġthou ght
ĠQu irrell
ry ff
ryff ind
ryffind or
op le
g g
au se
le s
Ġs l
Ġg l
ĠG ryffindor
a ir
Ġc lo
ĠF l
Ġc r
Ġ Uncle
Ġm an
Ġfa ce
it ch
Ġto ld
Ġro om
Ġg r
Ġwhe re
Ġu n
Ġ en
Ġst ill
Ġw ill
Ġs n
Ġpe ople
Ġne xt
f ter
art s
al k
Ġm o
Ġl ast
ow ed
o ol
e p
Ġthou gh
ĠW e
o ck
Ġt ell
Ġbec ause
at her
Ġm u
Ġ E
ud den
l t
Ġwhi ch
Ġw and
Ġo p
Ġm ad
Ġle ft
Ġd r
Ġb room
ĠS t
u p
Ġst art
Ġs pe
Ġit s
ou se
o se
Ġs udden
Ġpo int
un t
W hat
B ut
Ġw a
Ġt a
Ġse c
Ġbe h
on t
iz ard
Ġwas n
Ġl ong
v ing
nd er
Ġtw o
Ġturn ed
or m
ak ing
The y
Ġs m
Ġop en
Ġ You
w arts
og warts
Ġhe ard
Ġgo od
Ġc ame
Ġb it
e w
a c
Ġmu ch
Ġd ay
Ġbeh ind
Ġbe t
ĠC h
u ck
id d
Ġsh ould
Ġp ull
Ġc he
i ly
ar ing
ad y
Ġsee med
Ġm ust
Ġha pp
Ġf lo
Ġc ome
ĠH ogwarts
Ġ.. .âĢĿ
o ll
itt le
Ġw ent
Ġto ward
Ġ âĢĻ
s ed
a ve
Ġre ally
Ġb o
um p
i le
Ġany thing
Ġa way
Ġl ittle
Ġf ound
Ġa fter
un n
r an
er ing
ag e
Ġon ce
l ie
in s
ch ool
Ġsudden ly
Ġow l
Ġo ld
Ġmad e
in e
at er
A nd
Ġw izard
Ġv o
Ġs chool
Ġp ut
Ġlet ter
Ġhim self
Ġc all
ĠSt one
i a
he re
Ġtry ing
Ġth ree
Ġh u
Ġf ind
Ġb ook
ent s
Ġk eep
ĠT h
ou gh
ly ther
ar ly
Ġt ried
Ġsa w
Ġkn ew
t h
oo d
me mb
c he
Ġu nder
Ġp re
Ġk e
Ġf am
Ġt ra
ĠS lyther
H agrid
Ġvo ice
Ġto ok
Ġas ked
ĠWe as
ĠWeas ley
r or
on s
idd itch
ag ic
W e
Ġt r
Ġt ake
Ġst and
Ġsec ond
ĠP et
Ġ ra
un ia
Ġw ind
Ġn ight
Ġm om
Ġh ard
Ġfe w
Ġar m
ĠQu idditch
ĠPet unia
Ġ im
f ul
a ch
W h
Ġy er
Ġg i
Ġf ore
Ġe nd
Ġd ark
in n
i gh
at h
ar n
ar ge
O h
Ġwe ll
Ġp ass
Ġm ight
Ġl ot
Ġe ver
ĠG r
e ver
Ġwh is
Ġne w
Ġin side
u gg
ous ly
il ch
Ġw all
Ġse en
Ġre memb
Ġqu ick
Ġhad n
Ġh o
Ġh at
Ġflo or
Ġdr ag
Ġc our
Ġb ed
u e
c y
Ġwould n
Ġwhi le
Ġpull ed
Ġm ind
Ġh ur
ĠF ilch
re am
au ght
Ġthing s
Ġne ed
Ġl arge
Ġhapp en
Ġg reat
Ġfr ont
Ġfe et
Ġbl ack
Ġa c
ĠA unt
le ep
is e
e nd
d ay
Ġye ars
Ġt alk
Ġb r
Ġan other
Ġa ir
is h
ion s
e en
as e
W ell
T h
Ġw r
Ġstart ed
Ġm ake
Ġfe lt
Ġf ee
Ġclo ak
ĠDursley s
un g
t y
er t
al ked
a ce
Ġsu pp
Ġs mi
Ġre ad
Ġpl ay
Ġp ast
Ġmom ent
Ġg one
way s
u re
m ost
g et
e k
ang er
R on
Ġu nt
Ġt ro
Ġg round
Ġf ire
Ġen ough
Ġc o
Ġal most
ĠW ood
r ow
ar y
Ġwa it
Ġw alked
Ġme an
Ġf oll
Ġf ell
ĠSlyther in
ĠI n
p l
ir ror
he ad
et s
d d
a w
Ġs at
Ġn ame
Ġc le
Ġ our
ro s
Ġwind ow
Ġwant ed
Ġunt il
Ġta ble
Ġsu re
Ġsay ing
Ġpoint s
Ġm in
Ġd one
Ġcour se
Ġcall ed
Ġas k
ĠA nd
p le
p ed
ou d
ok e
e l
The re
Ġre al
Ġquick ly
Ġnot hing
Ġmin ut
Ġl ater
Ġg re
Ġd ro
Ġd if
Ġal re
Ġalre ady
ĠThe re
ĠH ouse
m ent
i ed
Ġwor d
Ġwh y
Ġst re
Ġha lf
Ġha ir
Ġd is
Ġcl ass
ĠP er
p er
he n
H ermione
Ġwith out
Ġst ud
Ġst o
Ġp ro
Ġli ght
Ġex pe
Ġe l
Ġc or
Ġbook s
ĠN or
ot h
nd red
ick ed
b r
N o
Ġw on
Ġtra in
Ġst ra
Ġst op
Ġst e
Ġm irror
Ġh or
Ġbe ing
ĠMr s
ĠM ugg
od y
i x
air s
Y es
D on
Ġwor k
Ġw ond
Ġtro ll
Ġow n
Ġnot ic
Ġhu ndred
Ġf ull
Ġf in
Ġcor rid
Ġcorrid or
ĠB l
y ing
i es
che s
a ched
a b
Ġsm all
Ġsh out
Ġs ound
Ġrememb er
Ġon to
Ġk ill
Ġevery one
Ġel se
Ġc aught
Ġal ways
Ġac ros
Ġacros s
m ort
iz ed
it her
g s
am p
Ġw atch
Ġst r
Ġst ood
Ġs il
Ġre ached
Ġm agic
Ġle a
Ġhe l
Ġh old
Ġh igh
Ġh as
Ġgo ld
Ġg ave
Ġf our
Ġe m
Ġbet ter
Ġb u
Ġb re
ĠS he
w here
ri ble
old e
olde mort
i ble
T hat
S o
Ġwhis pe
Ġwe ek
Ġsa me
Ġke pt
Ġim p
Ġhand s
Ġc are
Ġc ar
Ġb ad
ĠS e
Ġ K
z e
st ick
or y
o s
is ed
c ing
ad am
Ġy es
Ġwhispe red
Ġto p
Ġt re
Ġs ort
Ġs ide
Ġp le
Ġout side
Ġl oud
Ġkn ock
Ġgl ass
Ġfore st
Ġf ather
ĠV oldemort
t ered
ow er
or d
im b
i ld
ct ed
Ġte am
Ġs qu
Ġs it
Ġqu ite
Ġpl ace
Ġn er
Ġli fe
Ġha ll
Ġh ouse
Ġbroom stick
Ġb lo
Ġb ig
Ġany one
ĠW hat
ĠPer cy
v is
us hed
ra bb
p s
m on
is hed
ig n
an k
Ġwho le
Ġthe se
Ġsw e
Ġst ared
Ġro b
Ġqu i
Ġm other
Ġe ach
Ġdo ing
Ġdo es
Ġcom ing
Ġc ou
Ġc e
Ġal ong
unn y
u ri
t en
ee ves
Ġwh ite
Ġt ak
Ġs k
Ġre st
Ġr u
Ġp ack
Ġno se
Ġmo ve
Ġm ut
Ġhe ar
Ġg u
Ġfor ward
Ġf ri
Ġc at
ĠThe n
ĠO n
ĠH is
Ġ J
s w
orn ing
or ry
o ot
n ow
le ss
ist en
ir d
b o
at ing
am b
H ow
Ġye ar
Ġy ell
Ġte ac
Ġt rou
Ġstand ing
Ġst ay
Ġsil ver
Ġm orning
Ġhappen ed
Ġgre en
Ġfri end
Ġc old
Ġbe g
Ġb est
ter ing
l ves
l s
fe re
ar m
a h
Wh o
Ġs leep
Ġs ile
Ġp a
Ġminut es
Ġl ost
Ġin t
Ġget ting
Ġem pt
Ġdrag on
Ġc orn
Ġc on
Ġb reat
Ġagain st
re w
pp ing
pl ain
or ge
o on
o c
ll i
in ed
g er
ct ly
ct ion
as h
a v
Ġteac her
Ġtalk ing
Ġsupp ose
Ġsto pped
Ġshout ed
Ġre d
Ġpl at
Ġnotic ed
Ġle arn
Ġhel p
Ġfam ily
Ġf er
Ġex ce
Ġdo g
Ġc up
Ġb ra
Ġa p
ĠF red
Ġ round
Ġ (
ull y
ran ge
pe ared
m as
in ting
f orm
e re
e orge
b e
at ion
P rofessor
A ll
Ġus u
Ġtrou ble
Ġtak en
Ġstra ight
Ġsh ow
Ġs et
Ġpo ck
Ġne arly
Ġm ost
Ġevery thing
Ġbe lie
Ġb ro
Ġb oth
Ġan sw
ĠG eorge
ĠE very
ĠB ut
p h
ott s
in ce
c es
b l
A t
Ġy et
Ġt en
Ġst range
Ġs na
Ġj o
Ġg ame
Ġdif fere
Ġd es
Ġb all
ĠP eeves
ĠI f
ow d
ing otts
il ing
f ully
b ert
ame l
Y e
Ġwere n
Ġu se
Ġsa fe
Ġs ight
Ġqui et
Ġp ain
Ġman y
Ġm out
Ġj ump
Ġhe art
Ġh ome
Ġgu ard
Ġfoll ow
Ġb us
Ġb ott
Ġab le
ĠT w
ĠM adam
ĠFl amel
ĠA n
ĠA ll
ur p
uff y
ous and
o ve
n ce
ll ed
l ight
is s
ic orn
i er
ent ion
at ched
Ġw alk
Ġsna pped
Ġsit ting
Ġse at
Ġrob es
Ġre as
Ġpo s
Ġner v
Ġmout h
Ġli br
Ġl ock
Ġhold ing
Ġg as
Ġfee ling
Ġf unny
Ġf ive
Ġf ast
Ġde ad
Ġcorn er
Ġc ast
Ġbre ak
Ġan g
Ġa m
ĠNor bert
ĠGr ingotts
ĠG reat
ĠFl uffy
se lves
r ist
rist mas
iz e
ag ed
A n
Ġword s
Ġun icorn
Ġt ri
Ġsome one
Ġsee m
Ġpass ed
Ġp er
Ġm atch
Ġlibr ary
Ġl isten
Ġgi ant
Ġg ive
ĠH all
ĠGr anger
ĠA s
oy le
ic ul
i ous
g ing
er y
bo ard
as ed
are nt
ap s
a ff
a bb
Ġwor ld
Ġtw ins
Ġst aring
Ġsome where
Ġsh op
Ġsc ar
Ġs orry
Ġreas on
Ġqu est
Ġpre s
Ġpos s
Ġp arent
Ġparent s
Ġnot e
Ġno ise
Ġm et
Ġm ar
Ġl uck
Ġl au
Ġint ere
Ġintere st
Ġh our
Ġg h
Ġf oot
Ġf ly
Ġempt y
Ġe ither
Ġd ri
Ġd eep
Ġcr owd
Ġcast le
Ġc atch
Ġbeg an
Ġarm s
ĠN o
ĠG oyle
ĠCh ristmas
Ġ ri
Ġ ide
up id
ri v
re t
om an
i ously
i b
e y
ch ing
c o
c ed
an ed
an ce
O n
N ow
Ġth ose
Ġt ou
Ġstud ents
Ġst upid
Ġspe ak
Ġsc ream
Ġs ir
Ġs ince
Ġr ather
Ġplat form
Ġp r
Ġmo ved
Ġle s
Ġles s
Ġke y
Ġgh ost
Ġfor get
Ġfor g
Ġf ar
Ġexce pt
Ġe as
Ġd ire
Ġcom mon
Ġclo se
Ġblo od
Ġbet w
Ġbetw een
Ġansw er
Ġa dd
ĠTh is
ĠBl ud
ry ing
ore d
ld r
k s
it w
i p
i led
g ed
fe ct
au ldr
ar lie
ap er
a ctly
S he
N ot
Ġw atched
Ġto w
Ġto ad
Ġsu ch
Ġstre et
Ġsl ow
Ġs ign
Ġr at
Ġpoint ed
Ġpa le
Ġp ower
Ġp ie
Ġne ck
Ġn ice
Ġmut tered
Ġm ay
Ġle gs
Ġis n
Ġhur t
Ġhe ld
Ġhard ly
Ġha n
Ġh ung
Ġh id
Ġfee l
Ġex am
Ġdro pped
Ġdiffere nt
Ġde c
Ġcup board
Ġbr other
Ġbelie ve
Ġb right
Ġas leep
ĠMugg le
ĠH ow
ĠB e
v and
um m
rabb e
on ight
lli vand
itw ick
it y
ie ld
e ak
b ody
at ed
ab ly
Th is
M alfoy
K now
I f
Ġyou n
Ġw ild
Ġw arn
Ġto get
Ġtoget her
Ġt onight
Ġst uff
Ġs urp
Ġsurp r
Ġre m
Ġre f
Ġp art
Ġp ar
Ġowl s
Ġne are
Ġme et
Ġman aged
Ġm ist
Ġletter s
Ġknow s
Ġin st
Ġide a
Ġhu ge
Ġhor rible
Ġho pe
Ġha ven
Ġgot ten
Ġfoll owed
Ġfin ally
Ġfam ous
Ġf uri
Ġf ield
Ġex c
Ġcom p
Ġche ss
Ġce iling
Ġc ont
Ġb ar
Ġany way
Ġal one
Ġa d
ĠW hen
ĠSe am
ĠSeam us
ĠS ee
ĠO llivand
ĠFl itwick
ĠC rabbe
y e
t a
ra ct
ou ght
o sed
in y
if f
e ct
ate ly
ar p
an e
S nape
Ġwr ong
Ġwait ing
Ġunder st
Ġt ur
Ġst one
Ġst ick
Ġst ep
Ġsp oke
Ġsn ake
Ġsmi ling
Ġra ised
Ġr an
Ġopen ed
Ġk it
Ġgas ped
Ġex plain
Ġex actly
Ġd ream
Ġcl imb
ĠTw o
ĠS n
ĠS c
ĠQu aff
ĠQuaff le
ĠMugg les
ĠM agic
ĠH uff
ĠHuff le
ĠHuffle p
ĠHufflep uff
ĠCh arlie
s p
rou ght
re r
op ing
n ze
lo ck
le w
l i
k er
ire nze
am es
a ble
W hen
S h
G ood
A s
Ġwatch ing
Ġw oman
Ġusu al
Ġtim es
Ġt ight
Ġste pped
Ġspe ll
Ġsh ook
Ġsh ock
Ġsh arp
Ġsec ret
Ġse nd
Ġs ing
Ġpock et
Ġple ased
Ġo b
Ġne ar
Ġn umb
Ġm one
Ġmone y
Ġm aking
Ġloud ly
Ġle ave
Ġl ow
Ġl o
Ġknock ed
Ġkit che
Ġkitche n
Ġhead s
Ġhe av
Ġh ut
Ġgi ven
Ġg ir
Ġf ree
Ġf ing
Ġf if
Ġf all
Ġdis ap
Ġd ied
Ġc ur
Ġbreat h
Ġbo at
Ġar ri
ĠTh ousand
ĠSn itch
ĠRon an
ĠN ow
ĠF ang
ĠD e
Ġ ent
Ġ U
ri ve
re s
ra w
ort ant
ol as
i pped
he s
h aps
auldr on
au lt
a ven
a il
M r
Ġwe aring
Ġv is
Ġunderst and
Ġth rew
Ġth ird
Ġth ick
Ġtell ing
Ġteacher s
Ġt all
Ġt aking
Ġsp r
Ġsm ell
Ġslow ly
Ġsh ut
Ġse ven
Ġreal ized
Ġr un
Ġpo inting
Ġp ract
Ġor d
Ġm id
Ġm at
Ġl ay
Ġimp ortant
Ġhow ever
Ġgo bl
Ġforg ott
Ġforgott en
Ġfl ut
Ġfl at
Ġey e
Ġe le
Ġdr ink
Ġde ar
Ġc ard
Ġb ur
Ġb rought
Ġb in
Ġarri ved
Ġall owed
Ġafter n
ĠW h
ĠP riv
ĠOllivand er
ĠN ot
ĠD ark
Ġ Y
unn ing
ud d
st airs
s o
or ce
is ter
h in
el ve
e ath
e ad
amb er
Wh y
S t
S ee
J ust
D umbledore
D o
Ġyoun g
Ġwall s
Ġw ide
Ġus ed
Ġter rible
Ġte le
Ġsupp osed
Ġsk y
Ġsile nt
Ġsh owed
Ġs ent
Ġro ck
Ġpre t
Ġpo st
Ġple ase
Ġp ushed
Ġp ort
Ġport ra
Ġportra it
Ġp icked
Ġp air
Ġn ast
Ġle g
Ġh it
Ġexpe ct
Ġdisap peared
Ġdif f
Ġcou nt
Ġcl a
Ġboy s
Ġbec ame
Ġb ag
Ġaftern oon
Ġab ove
ĠPriv et
ĠN imb
ĠNimb us
ĠD rive
ĠC up
ĠA t
th in
ro ss
ri f
re ss
ou nt
orce rer
ol ate
oc olate
n ess
k ing
i red
en s
en ing
and ed
ag es
a ld
The n
Qu irrell
N eville
C an
Ġyell ed
Ġwizard s
Ġtw elve
Ġturn ing
Ġtre es
Ġthink ing
Ġthem selves
Ġta il
Ġst air
Ġstair c
Ġshould er
Ġsecond s
Ġs umm
Ġre lie
Ġre c
Ġp un
Ġp ot
Ġp h
Ġother s
Ġob v
Ġo dd
Ġnumb er
Ġle ad
Ġl ate
Ġl amp
Ġk ind
Ġim ag
Ġhur ried
Ġglass es
Ġfriend s
Ġfif ty
Ġfa ct
Ġf ight
Ġeven ing
Ġe ars
Ġdoor s
Ġd anger
Ġcr ack
Ġclimb ed
Ġch amber
Ġc arry
Ġbur st
Ġang ry
Ġal so
Ġa w
Ġa head
ĠT hat
ĠS orcerer
ĠR e
ĠP i
ĠPi ers
ĠOn e
ĠGryffindor s
ĠF or
ĠF irenze
Ġ z
Ġ ed
un k
th day
t s
s er
re y
r is
p ing
ott ed
om f
o or
k en
ir thday
id ed
ic olas
h ow
ent y
eep er
d ed
ang ed
L ook
A re
ĠâĢ� �
Ġyour self
Ġwond ered
Ġvis it
Ġtur b
Ġturb an
Ġto day
Ġth row
Ġte a
Ġt ree
Ġt iny
Ġsw ung
Ġspe ed
Ġso on
Ġsile nce
Ġsc r
Ġs ister
Ġrem ind
Ġref le
Ġr unning
Ġr ow
Ġplay ing
Ġpass age
Ġp ur
Ġpur ple
Ġp ink
Ġnerv ous
Ġneare r
Ġmat ter
Ġm ail
Ġli ked
Ġlea pt
Ġlau gh
Ġkill ed
Ġjump ed
Ġinst ead
Ġha ving
Ġguard ing
Ġgr ow
Ġfly ing
Ġfing ers
Ġele ven
Ġe h
Ġe gg
Ġe at
Ġdiff icul
Ġco at
Ġclass room
Ġc ent
Ġc art
Ġbroom s
Ġbe l
Ġb ody
Ġb irthday
Ġb ent
ĠSlyther ins
ĠS o
ĠP omf
ĠPomf rey
ĠN icolas
ĠL ond
ĠLond on
ĠIn vis
ĠInvis ib
ĠInvisib il
ĠInvisibil ity
ĠFl int
ĠC lo
ĠClo ak
ĠB ane
Ġ 1
u se
u red
t ed
rif ied
m ents
itt en
it h
is hing
ig g
g ers
en ed
an ge
ak es
ain ly
ag on
abb ers
Ye ah
O R
E very
C ome
Ġwor ry
Ġwond er
Ġwit ch
Ġwalk ing
Ġw ood
Ġw ing
Ġup stairs
Ġtw ice
Ġtre mb
Ġstairc ase
Ġsmi led
Ġsmi le
Ġsh ad
Ġse ized
Ġscream ed
Ġsc ared
Ġs im
Ġre ady
Ġquiet ly
Ġquest ions
Ġpre fect
Ġpract ice
Ġpack age
Ġp ile
Ġp aper
Ġnast y
Ġn orm
Ġn od
Ġn ar
Ġminut e
Ġm ount
Ġm is
Ġm idd
Ġmidd le
Ġm ention
Ġluck y
Ġl ose
Ġj er
Ġhan ging
Ġh um
Ġground s
Ġgr ay
Ġg ra
Ġfore head
Ġexpe lled
Ġdrag ons
Ġdire ction
Ġd ie
Ġcare fully
Ġc re
Ġc oll
Ġbu y
Ġbro ken
Ġbe ard
Ġb at
Ġb ab
Ġat t
Ġare n
Ġap art
Ġag o
Ġadd ed
Ġa unt
ĠW izard
ĠW ell
ĠSee ker
ĠNor ris
ĠBlud gers
ĠAn y
ĠA l
ĠA fter
z ed
w ig
u b
st ri
ri ly
res sed
re ed
or row
op ed
l ting
ix ed
ir ty
ink ing
in ing
in ess
im e
i xt
h s
ed wig
c l
c i
aw n
as hed
ark s
am ing
W here
Ġwor se
Ġwond ering
Ġwindow s
Ġw arm
Ġun w
Ġtr ue
Ġsw o
Ġsu gg
Ġsugg est
Ġsp ot
Ġsome how
Ġsl id
Ġshould n
Ġshad ow
Ġsh ri
Ġsh aking
Ġse ver
Ġsever al
Ġsay s
Ġs er
Ġpro per
Ġposs ible
Ġp ers
Ġp ath
Ġon es
Ġn ine
Ġmy st
Ġli ve
Ġlea ving
Ġle aned
Ġl ying
Ġl ine
Ġkn e
Ġkne es
Ġho le
Ġheav y
Ġhapp y
Ġg rabb
Ġgrabb ed
Ġfin ished
Ġfe ather
Ġfam il
Ġfa v
Ġfa ces
Ġf lew
Ġf at
Ġexpe cted
Ġexc it
Ġex t
Ġeas y
Ġe ar
Ġe ag
Ġdes per
Ġd orm
Ġdorm it
Ġd ist
Ġd i
Ġd ad
Ġcr ate
Ġclo ser
Ġche er
Ġc ry
Ġbrother s
Ġbo x
Ġbl ue
Ġb ath
Ġap peared
Ġany thin
ĠWeasley s
ĠSc abbers
ĠPotter s
ĠPot ions
ĠM om
ĠH oo
ĠHoo ch
ĠH edwig
ĠEvery one
ĠCh as
Ġ rid
ur ing
ter s
ro d
ri ph
riph ook
ra pped
or s
ok ing
ist ed
inn ed
i ke
ent ly
e ed
ck ed
c lock
as ter
art h
an s
am med
ak ed
ac ed
\ âĢĿ
Ye h
E r
Ġwor ried
Ġweek s
Ġv ault
Ġu ncle
Ġtou ch
Ġto m
Ġt ick
Ġste al
Ġst ory
Ġst ation
Ġsp otted
Ġsp l
Ġsp ent
Ġso ft
Ġsh ot
Ġsh ort
Ġs un
Ġs le
Ġro se
Ġro lled
Ġro ll
Ġra cing
Ġqu ill
Ġpret end
Ġpower ful
Ġpl ant
Ġpl an
Ġp rou
Ġprou d
Ġobv iously
Ġo h
Ġnerv ously
Ġnar row
Ġmay be
Ġm ot
Ġlisten ing
Ġless ons
Ġlea ves
Ġle ast
Ġl anded
Ġkn own
Ġinterest ing
Ġin ches
Ġhid den
Ġh oo
Ġh ol
Ġhol id
Ġholid ay
Ġgo es
Ġgl ad
Ġgir l
Ġg lo
Ġfuri ously
Ġfoot st
Ġfamil ies
Ġf ro
Ġf right
Ġf ood
Ġf ad
Ġent ran
Ġed ge
Ġe arth
Ġdifficul t
Ġdec ided
Ġday s
Ġd raw
Ġd are
Ġcre pt
Ġcon f
Ġcom ple
Ġcla pped
Ġcl ut
Ġch o
Ġch anged
Ġch ance
Ġcent a
Ġc ried
Ġc ase
Ġbro ke
Ġbreak f
Ġbreakf ast
Ġbott le
Ġbe w
Ġad v
ĠW here
ĠS me
ĠSme lting
ĠR aven
ĠRaven cl
ĠRavencl aw
ĠN e
ĠHe ad
ĠH er
ĠE ven
ĠDe an
ĠD ra
ĠC auldron
ĠA g
Ġ ign
z ing
ve lo
uff led
t een
ri er
r own
omet hing
ok ed
o f
nd ern
ndern eath
n ight
le t
l ook
l in
itt ed
in ary
g hed
f ort
et h
eak y
c us
b ut
b s
b ably
ain s
P ot
P er
M y
I N
D udley
B e
Ġwr itten
Ġwork ing
Ġwh ist
Ġwa ved
Ġw oke
Ġw in
Ġw ater
Ġusu ally
Ġu mb
Ġumb rell
Ġumbrell a
Ġtw enty
Ġtom orrow
Ġto ile
Ġthrow ing
Ġth in
Ġtele vis
Ġtelevis ion
Ġswe ater
Ġsurpr ise
Ġstre t
Ġstart ing
Ġst orm
Ġst ool
Ġsound ed
Ġso f
Ġsof a
Ġsl ipped
Ġsl ight
Ġsing le
Ġsa ve
Ġs ize
Ġs ix
Ġrememb ered
Ġreal ize
Ġre t
Ġquest ion
Ġpres ents
Ġpr ot
Ġpot ion
Ġpock ets
Ġpers on
Ġout ta
Ġnorm al
Ġnew s
Ġmist ake
Ġlock ed
Ġli ving
Ġlearn ed
Ġl ump
Ġknow ing
Ġkeep ing
Ġjo ined
Ġjo b
Ġjer ked
Ġin vis
Ġinvis ible
Ġin s
Ġin d
Ġhundred s
Ġhor ror
Ġholiday s
Ġh ot
Ġh oping
Ġgobl in
Ġfor b
Ġforb id
Ġfl ick
Ġexcit ed
Ġex p
Ġentran ce
Ġdormit ory
Ġdoes n
Ġde ath
Ġdanger ous
Ġd uring
Ġd un
Ġdun ge
Ġd et
Ġcorridor s
Ġcon c
Ġcomple t
Ġcomplet e
Ġcomp art
Ġcom plain
Ġcle arly
Ġcle aring
Ġch uck
Ġch air
Ġce le
Ġcele br
Ġcarry ing
Ġcar ried
Ġc uri
Ġc ross
Ġbus y
Ġbus iness
Ġbl ank
Ġbar rier
Ġball s
Ġbab y
Ġb ri
Ġb ought
Ġag reed
ĠS p
ĠM y
ĠL ook
ĠL eaky
ĠF ro
ĠF at
ĠCh ocolate
ĠB ar
ĠA r
Ġ ice
Ġ es
y ou
w or
ve red
ut s
u ally
t le
t he
ran s
ra id
p ly
ord an
om ing
m y
look ing
it ched
inn ing
i ch
h a
g y
f raid
ert ainly
ee red
e ople
c c
bb ing
at ur
at i
ank s
al s
al m
R ight
N e
M adam
G o
F or
D id
Ġz o
Ġwr ist
Ġwhe ther
Ġwand s
Ġw ake
Ġv an
Ġu nderneath
Ġtw in
Ġtra p
Ġtrap d
Ġtrapd oor
Ġtr ut
Ġtrut h
Ġtr ust
Ġtr unk
Ġtoile t
Ġte eth
Ġsw all
Ġsu b
Ġstud ying
Ġstr ugg
Ġstep s
Ġstand s
Ġst uck
Ġst ars
Ġst airs
Ġsn iff
Ġsa us
Ġsa nd
Ġs us
Ġs on
Ġs ick
Ġru les
Ġret urn
Ġremind ed
Ġrelie f
Ġre s
Ġpull ing
Ġpro bably
Ġpie ces
Ġpie ce
Ġpar ch
Ġparch ment
Ġord inary
Ġo pp
Ġopp os
Ġoppos ite
Ġnotic ing
Ġnod ded
Ġno s
Ġneed ed
Ġn one
Ġmy self
Ġmot or
Ġmotor cy
Ġmotorcy cle
Ġmo on
Ġme ant
Ġmar ble
Ġm iss
Ġlo ad
Ġli ps
Ġlau ghed
Ġl ed
Ġind eed
Ġhat ed
Ġgr ass
Ġgi ving
Ġget s
Ġg ri
Ġfuri ous
Ġfootst ep
Ġfootstep s
Ġfollow ing
Ġfe ast
Ġf un
Ġf ir
Ġf ill
Ġf ig
Ġfig ure
Ġf ain
Ġfain t
Ġexam s
Ġen velo
Ġenvelo pe
Ġeag er
Ġe ating
Ġde light
Ġde l
Ġd rew
Ġd inn
Ġd amp
Ġcr ash
Ġconf us
Ġcompart ment
Ġch ange
Ġcare ful
Ġc ut
Ġc and
Ġbre aking
Ġbra ve
Ġbr ing
Ġbo ard
Ġb urn
Ġb ran
Ġb owed
Ġar g
Ġag es
Ġa fraid
Ġa ff
ĠW ith
ĠS ome
ĠK eeper
ĠHall ow
ĠHallow een
ĠH igh
ĠG riphook
ĠE x
ĠBlud ger
Ġ ?âĢĿ
wor k
w e
ut er
ud ge
rans f
ra p
pp er
ous es
ott om
ot s
ong b
ongb ottom
o es
m en
lli ant
ll s
li ver
ive red
ink ed
ig hed
ct or
bb y
b us
b out
av or
an ing
an cing
W ood
Pot ter
Not hing
L E
H is
A h
A R
) .
Ġyell ow
Ġwood en
Ġwhis per
Ġwarn ing
Ġwarn ed
Ġwant ing
Ġwand ering
Ġwa ving
Ġw re
Ġw ort
Ġwort h
Ġw ished
Ġtw isted
Ġtremb ling
Ġth ousand
Ġter rified
Ġswall owed
Ġsumm er
Ġsuggest ed
Ġstud y
Ġstr ong
Ġspe ci
Ġsp ed
Ġso l
Ġsn ow
Ġsn e
Ġsn ar
Ġsnar led
Ġsim ply
Ġshow s
Ġsh all
Ġs ixt
Ġs ighed
Ġrefle ction
Ġre ck
Ġrat t
Ġr ushed
Ġr is
Ġpro ble
Ġproble m
Ġpassage way
Ġpar ce
Ġparce l
Ġp ig
Ġp an
Ġof ten
Ġnot ice
Ġno stri
Ġnostri ls
Ġnew sp
Ġmo ving
Ġm ont
Ġm ark
Ġload s
Ġli ved
Ġlaugh ing
Ġl ur
Ġl it
Ġknock ing
Ġkn ight
Ġinterest ed
Ġhur ry
Ġhour s
Ġher self
Ġhand le
Ġhand ed
Ġhalf way
Ġh ate
Ġgold en
Ġforbid den
Ġfl ash
Ġfe ar
Ġfad ed
Ġfa cing
Ġext ra
Ġexp lo
Ġe v
Ġdro p
Ġdinn er
Ġdesper ate
Ġd ou
Ġcou ple
Ġco vered
Ġcl ot
Ġclot hes
Ġchess men
Ġcenta ur
Ġc urs
Ġc rying
Ġc alm
Ġbran ches
Ġbott om
Ġbel ong
Ġbec ome
Ġb uck
Ġb ird
Ġb an
Ġask ing
Ġan x
Ġam a
Ġal ive
Ġa ward
ĠT ower
ĠS ort
ĠRe memb
ĠRememb r
ĠRemembr all
ĠP eople
ĠL ongbottom
ĠL ady
ĠK now
ĠJ ordan
ĠH ouses
ĠF igg
ĠDra co
ĠChas ers
ĠC ome
ĠBar on
ĠAr ts
Ġ er
Ġ ,
w h
ur se
unn o
ump ed
umb ling
th ough
t in
rod e
re ad
ow ing
ou n
os ing
ol f
n ot
mb er
m ore
k in
it s
ir teen
ing s
im es
il s
if e
ie w
ha ired
gg ed
g round
f aced
ess ion
er ry
ens e
ck ing
c ome
b ow
b all
ay be
aw s
atch ing
ast ic
as hing
ar ters
ant ic
ant ed
ang ing
ac es
a pp
a ct
You r
Th ree
Sh ut
S orry
S omething
On e
O f
N ever
I n
G ot
Every one
D OR
C h
An y
Ġzo o
Ġyour s
Ġye ah
Ġwor ked
Ġwit ches
Ġwhe e
Ġwhat ever
Ġway s
Ġwant s
Ġwait ed
Ġw rapped
Ġv i
Ġun us
Ġtou ched
Ġto r
Ġtick et
Ġthink s
Ġthan ks
Ġth irteen
Ġte ars
Ġte ach
Ġt ap
Ġswo oped
Ġswe ets
Ġsus pe
Ġsurpr ised
Ġsumm at
Ġstr anger
Ġstay ed
Ġst rode
Ġst om
Ġspr ang
Ġspeci al
Ġsp arks
Ġsound ing
Ġsomet hin
Ġsol id
Ġsn out
Ġslight ly
Ġsl ammed
Ġsilent ly
Ġshow ing
Ġshould ers
Ġshop s
Ġshock ed
Ġsharp ly
Ġshadow s
Ġsh ake
Ġseem s
Ġseat s
Ġse a
Ġscr amb
Ġsafe ly
Ġsa d
Ġru le
Ġro ad
Ġrec og
Ġrecog n
Ġre p
Ġre l
Ġquill s
Ġqui ver
Ġproper ly
Ġpres sed
Ġpr om
Ġplay ers
Ġph ot
Ġper haps
Ġpass ing
Ġpart icul
Ġparticul arly
Ġpack ed
Ġp op
Ġp iled
Ġp ick
Ġp i
Ġp eered
Ġp at
Ġnot es
Ġnos es
Ġnewsp aper
Ġneed s
Ġne ither
Ġne at
Ġmut tering
Ġmu r
Ġmur m
Ġmurm ured
Ġmis er
Ġmid night
Ġmid air
Ġmean s
Ġme as
Ġmar ched
Ġm us
Ġm ess
Ġm er
Ġlot s
Ġlook s
Ġle ss
Ġless on
Ġle mon
Ġl ist
Ġl ake
Ġkey s
Ġk id
Ġk icked
Ġj us
Ġj oke
Ġin v
Ġin ter
Ġign ored
Ġhome work
Ġhis sed
Ġhid ing
Ġhan g
Ġh ig
Ġhig her
Ġgrow led
Ġgr unt
Ġgrunt ed
Ġgot ta
Ġgobl ins
Ġgo al
Ġglo om
Ġgir ls
Ġgame k
Ġg ro
Ġg le
Ġg ard
Ġfor ce
Ġfind ing
Ġfill ed
Ġfav or
Ġf ixed
Ġexce ll
Ġexcell ent
Ġes c
Ġent ered
Ġem er
Ġeager ly
Ġdunge ons
Ġdis g
Ġdes k
Ġdark ness
Ġd ressed
Ġcour age
Ġcount ry
Ġcou n
Ġclut ching
Ġcle an
Ġcl ub
Ġcl oud
Ġcl icked
Ġchuck led
Ġche st
Ġc ros
Ġcros sed
Ġc ree
Ġc ol
Ġc ir
Ġc hat
Ġc ertainly
Ġc auldron
Ġc ake
Ġc a
Ġbu nd
Ġbroomstick s
Ġbott les
Ġboat s
Ġbin oc
Ġbinoc ul
Ġbinocul ars
Ġbe ll
Ġb ow
Ġb ound
Ġb ol
Ġb as
Ġb are
Ġb ac
Ġbac on
Ġaw ake
Ġatt ention
Ġarm or
Ġarm ch
Ġany where
Ġany more
Ġang rily
Ġan im
Ġadd ress
Ġad m
Ġac c
Ġa st
ĠYou r
ĠT o
ĠSort ing
ĠS atur
ĠSatur day
ĠM in
ĠM alk
ĠMalk in
ĠL ee
ĠD i
ĠDi agon
ĠBl ood
ĠAny way
ĠAll ey
ĠAl bus
Ġ Yes
âĢĻ ,
us h
un ch
u nd
ter day
t ime
s et
pt ed
ou l
on est
n er
m m
m ing
les s
l come
ke y
j ect
iz ing
itch ing
ist ry
int ed
inn y
inn ig
innig an
id ent
ic t
i um
head ed
he red
f or
en se
ck s
bb ish
b ye
aught er
ang s
am ed
ad e
a pe
V ery
The ir
Th anks
S ome
R Y
L et
I s
H A
G ive
G et
F F
C H
" .
". .
".. .
Ġyoung est
Ġyes terday
Ġwonder ful
Ġwere w
Ġwe ak
Ġvo ic
Ġv iew
Ġun less
Ġun if
Ġunif orm
Ġtro ph
Ġtroph y
Ġtri ck
Ġtrain ing
Ġtow n
Ġthousand s
Ġthan k
Ġth rown
Ġth ro
Ġthro at
Ġter m
Ġtele ph
Ġteleph one
Ġtable s
Ġt ired
Ġswe at
Ġstret ched
Ġstom ach
Ġsto le
Ġst unn
Ġstunn ed
Ġst ream
Ġst amp
Ġsqu eak
Ġspl it
Ġspeed ing
Ġspe ct
Ġsp ir
Ġso cc
Ġsocc er
Ġsm o
Ġshe lves
Ġsh ivered
Ġse ar
Ġscar let
Ġsaus ages
Ġsand w
Ġrelie ved
Ġreck on
Ġre pe
Ġrepe ated
Ġre fe
Ġrefe ree
Ġre ce
Ġr ang
Ġprot ect
Ġpres ent
Ġpost s
Ġposs ession
Ġpo is
Ġplatform s
Ġplat es
Ġplan ets
Ġper fect
Ġpe ering
Ġp inned
Ġp ier
Ġp anted
Ġover head
Ġold er
Ġnot hin
Ġno body
Ġneare st
Ġn or
Ġmyst er
Ġmust ac
Ġmustac he
Ġmount ain
Ġmoon light
Ġmo aned
Ġm on
Ġm ine
Ġlur king
Ġlump y
Ġlight n
Ġlightn ing
Ġli ft
Ġli e
Ġlead ing
Ġl in
Ġl aughter
Ġjo in
Ġit self
Ġin c
Ġimag ine
Ġhur rying
Ġhum an
Ġhoo ps
Ġho sp
Ġhosp it
Ġhospit al
Ġhas n
Ġhard er
Ġh ood
Ġh ide
Ġgr in
Ġgl it
Ġghost s
Ġget tin
Ġgard en
Ġgamek eeper
Ġg ently
Ġg ang
Ġfore ver
Ġflut e
Ġflo ating
Ġfl ames
Ġfight ing
Ġfavor ite
Ġfall en
Ġf ist
Ġf ier
Ġfier ce
Ġexcited ly
Ġev il
Ġemer ald
Ġeas ily
Ġdro ve
Ġdri lls
Ġdrag ged
Ġdou b
Ġdoor way
Ġdo d
Ġdiffere nce
Ġdi ved
Ġdel ic
Ġdark ly
Ġd ive
Ġcoun ter
Ġcont ro
Ġcontro l
Ġcomplete ly
Ġcomp uter
Ġcom fort
Ġcle ared
Ġcle ar
Ġclass es
Ġcl amb
Ġclamb ered
Ġche ers
Ġche ering
Ġch ild
Ġcat s
Ġbra nd
Ġbr own
Ġblank ets
Ġbed room
Ġbe a
Ġbath ro
Ġback ward
Ġb lew
Ġb ill
Ġb en
Ġben eath
Ġan n
Ġal though
Ġaff ord
Ġa ct
ĠWh o
ĠWh ile
ĠTh ree
ĠT able
ĠSp r
ĠS ir
ĠS h
ĠPer haps
ĠN ever
ĠMin istry
ĠMagic al
ĠM iss
ĠM irror
ĠL ily
ĠK ing
ĠJ ust
ĠH ist
ĠHist ory
ĠG o
ĠFro gs
ĠFl avor
ĠF innigan
ĠE r
ĠEr ised
ĠC ross
ĠC an
ĠBlood y
ĠBe ans
ĠB y
Ġ( âĢľ
ye ar
ver s
ve ry
very where
ve r
us hing
un e
udd y
u ry
u es
u ce
to p
t hat
st r
s ing
s h
ri cted
ransf ig
ra z
r u
r om
r it
r agon
qu arters
or ing
oot ing
onest ly
oll ow
ol k
o le
o h
n uts
n ched
le ase
it ing
ind ing
if t
ie f
ib ly
i an
el s
e f
d ing
c ause
arm s
ap ed
and ing
an y
ack s
a ving
a cle
U n
R e
P eeves
On ly
O U
O T
N T
Mr s
L isten
F irst
C ould
B l
B et
A l
A fter
Ġyour selves
Ġy awn
Ġwre st
Ġwizard ing
Ġwing s
Ġwhist le
Ġwhis p
Ġwhere ver
Ġwarm th
Ġw ore
Ġw ish
Ġw inning
Ġvoic es
Ġvan ished
Ġuse ful
Ġup set
Ġunw rapped
Ġunus u
Ġunusu al
Ġu r
Ġtw itched
Ġtw ig
Ġtr ash
Ġtow ering
Ġtow er
Ġto ast
Ġtight ly
Ġth irty
Ġteam s
Ġta pped
Ġt ast
Ġswo oping
Ġswe et
Ġsub ject
Ġstrange ly
Ġstr uck
Ġstick s
Ġst iff
Ġst ern
Ġst at
Ġst are
Ġsqu inting
Ġsqu ee
Ġsqu are
Ġspr inted
Ġspe aking
Ġsomet imes
Ġso cks
Ġsmo oth
Ġsl ither
Ġslither ing
Ġsk in
Ġshri ek
Ġshri e
Ġshrie ked
Ġshe ets
Ġsh are
Ġsh ak
Ġse v
Ġscramb led
Ġsandw ic
Ġsandwic hes
Ġsa ved
Ġs ur
Ġs lo
Ġs id
Ġs ank
Ġro ast
Ġrep ort
Ġrece i
Ġread ing
Ġre ach
Ġra re
Ġra in
Ġput ting
Ġpretend ing
Ġpret ty
Ġprefect s
Ġposs ibly
Ġpois on
Ġpo or
Ġpl astic
Ġphot og
Ġphotog rap
Ġphotograp hs
Ġph o
Ġpho en
Ġphoen ix
Ġper fe
Ġperfe ctly
Ġpe pper
Ġpan ic
Ġp urp
Ġpurp ose
Ġp uff
Ġp u
Ġp ol
Ġp in
Ġp ay
Ġop in
Ġopin ion
Ġoff ice
Ġnight m
Ġnightm are
Ġner ve
Ġn ames
Ġmyster ious
Ġmus ic
Ġmiser ably
Ġmind s
Ġmeet ing
Ġm umbled
Ġm um
Ġm ood
Ġm i
Ġmi les
Ġlock er
Ġlin es
Ġli es
Ġle aning
Ġl unch
Ġl ower
Ġl osing
Ġk ick
Ġk et
Ġj oking
Ġj ack
Ġinv ol
Ġinvol ved
Ġinc red
Ġin k
Ġimp ressed
Ġimag ining
Ġhurt led
Ġhung ry
Ġhow ling
Ġhor se
Ġhel ped
Ġhappen s
Ġhapp ily
Ġhand ker
Ġhandker ch
Ġhandkerch ief
Ġha lt
Ġh orn
Ġgro aned
Ġgreat est
Ġgre w
Ġgra nd
Ġgra b
Ġgr inned
Ġgr ate
Ġglit tering
Ġg all
Ġfro g
Ġfright ened
Ġfriend ly
Ġfr own
Ġfr antic
Ġfor ced
Ġflo od
Ġfir m
Ġfeather s
Ġf re
Ġf oo
Ġf ine
Ġf aster
Ġf angs
Ġexplo ded
Ġexplain ed
Ġen orm
Ġenorm ous
Ġen j
Ġenj oy
Ġen g
Ġen ch
Ġench ant
Ġenchant ments
Ġegg s
Ġdri ve
Ġdisg ust
Ġdire ct
Ġdelight ed
Ġde m
Ġde f
Ġday light
Ġd ust
Ġd ue
Ġd est
Ġcuri ously
Ġcuri ous
Ġcur t
Ġcur se
Ġcross bow
Ġcree p
Ġcont act
Ġconc ern
Ġcomplain ed
Ġcoll ect
Ġcoll ap
Ġcollap sed
Ġco ins
Ġclo sed
Ġcla pping
Ġcir c
Ġche ek
Ġch ocolate
Ġcelebr ating
Ġcard s
Ġc ro
Ġc reat
Ġc ream
Ġc op
Ġc as
Ġc akes
Ġbus h
Ġbund le
Ġbu ild
Ġbring ing
Ġbri lliant
Ġbreat hing
Ġbreat he
Ġbr on
Ġbron ze
Ġbow l
Ġbo ots
Ġbl ond
Ġbl inked
Ġbit s
Ġbird s
Ġbew itched
Ġbell owed
Ġbelie ved
Ġbel ow
Ġbec oming
Ġbea ut
Ġbe nd
Ġbe ast
Ġbe ar
Ġbe aming
Ġbath room
Ġbare ly
Ġbar ked
Ġbad ly
Ġb ike
Ġb ald
Ġast on
Ġar ch
Ġarch way
Ġanx iously
Ġanim als
Ġadv ent
Ġadvent ure
Ġadm ir
Ġab ou
Ġa pp
Ġa ge
ĠY OU
ĠWh y
ĠU nder
ĠThe ir
ĠTh rough
ĠSt ud
ĠSpr out
ĠSe ction
ĠS na
ĠSna re
ĠS ick
ĠS ever
ĠR oman
ĠRoman ia
ĠR ight
ĠR est
ĠRest ricted
ĠP ar
ĠO r
ĠO h
ĠNe arly
ĠM ar
ĠMar cus
ĠL et
ĠK nuts
ĠJ ames
ĠIn side
ĠI s
ĠHer bo
ĠHerbo lo
ĠHerbolo gy
ĠHead less
ĠH ave
ĠH I
ĠHI M
ĠG inny
ĠG all
ĠGall e
ĠF ri
ĠE n
ĠE l
ĠEl ix
ĠElix ir
ĠD igg
ĠDigg le
ĠD id
ĠD ev
ĠC urse
ĠBe at
ĠB ill
ĠA re
Ġ ought
Ġ ir
Ġ ill
Ġ ic
Ġ Yeh
z en
wh ile
ust ling
ur ation
un ately
ul i
ul ar
uck ed
u nder
stri ctor
row s
ri c
re me
ransfig uration
ra ft
r owed
pt ain
pp led
p he
p es
on es
oll y
ok en
o pe
n ey
m ering
m ered
k n
k ers
k ay
ite ment
it ting
ip ing
im ey
id ing
i us
i ry
i en
h ip
g th
n gth
ell ing
ee ling
ee ch
ed d
e al
co at
ck le
bl ack
bb led
bb ed
b es
ay ed
at oes
as y
as ant
al us
ag ing
Wh ich
We lcome
U p
T o
S top
S ir
RY FF
RYFF IN
RYFFIN DOR
Per haps
Per cy
O r
O O
M om
M e
M aybe
H ell
G r
F red
F ive
An other
A bout
- ,
Ġyoun ger
Ġwr iting
Ġwor st
Ġwild ly
Ġwhisp ering
Ġwhi pped
Ġwh ir
Ġwerew olf
Ġwe igh
Ġwe ather
Ġwas t
Ġwa ve
Ġw ound
Ġw oken
Ġw iping
Ġw inked
Ġw ine
Ġw icked
Ġw i
Ġw et
Ġv ac
Ġunw rap
Ġun ple
Ġunple asant
Ġun f
Ġtw itching
Ġtur key
Ġtri p
Ġtr un
Ġtrun ks
Ġto re
Ġto ppled
Ġth und
Ġthund ered
Ġth reat
Ġthreat ening
Ġte m
Ġtem per
Ġte les
Ġteles co
Ġtelesco pe
Ġta pping
Ġta pe
Ġta bby
Ġt y
Ġt est
Ġt aught
Ġsw ift
Ġsuspe cted
Ġsu it
Ġstrugg ling
Ġstrugg led
Ġstrong ly
Ġstre aked
Ġstick ing
Ġstay ing
Ġstat ue
Ġst ut
Ġst umbled
Ġst ro
Ġst ri
Ġst eep
Ġst am
Ġst al
Ġst aff
Ġst ack
Ġsquee zed
Ġsqueak ed
Ġsqu ash
Ġsquash y
Ġspir al
Ġspell s
Ġsp read
Ġsp ort
Ġsp eech
Ġsp ark
Ġspark ling
Ġsort s
Ġsome body
Ġsoft ly
Ġso bbed
Ġsniff ed
Ġsne aking
Ġsn atched
Ġsmell ed
Ġsm oke
Ġsle e
Ġslee ve
Ġsl i
Ġsixt y
Ġside ways
Ġshort ly
Ġsh uffled
Ġsh ooting
Ġsh one
Ġsh iny
Ġsh aped
Ġsh ape
Ġser ious
Ġscream ing
Ġsc ri
Ġsc ree
Ġsc raw
Ġsc ra
Ġsc ore
Ġs ense
Ġru bbish
Ġround ed
Ġro pes
Ġro ot
Ġro of
Ġro ared
Ġris k
Ġri pped
Ġres ul
Ġresul ts
Ġrel a
Ġrela x
Ġrefle cted
Ġrecogn ized
Ġrecei ved
Ġrec ord
Ġreal izing
Ġratt ling
Ġratt led
Ġrat s
Ġra is
Ġra bb
Ġrabb it
Ġr ustling
Ġr um
Ġr uffled
Ġr ud
Ġrud e
Ġr age
Ġquiver ing
Ġquick er
Ġqu een
Ġpun ished
Ġprot e
Ġproblem s
Ġpract ic
Ġplay er
Ġpl ump
Ġpl ate
Ġpl aces
Ġpier cing
Ġpi pe
Ġpepper m
Ġpepperm int
Ġpe c
Ġpec uli
Ġpeculi ar
Ġpe as
Ġpack ages
Ġp ump
Ġp udd
Ġp riv
Ġp ri
Ġp ound
Ġp or
Ġp oking
Ġp en
Ġp airs
Ġown ed
Ġowl ery
Ġover t
Ġover coat
Ġour selves
Ġour s
Ġor ange
Ġoff ered
Ġobv ious
Ġo ak
Ġnod ding
Ġno is
Ġner ves
Ġneck s
Ġn ons
Ġnons ense
Ġn et
Ġmove ments
Ġmont hs
Ġmont h
Ġmiss ing
Ġmis sed
Ġmer rily
Ġmention ed
Ġmean while
Ġman age
Ġm ixt
Ġmixt ure
Ġm ixed
Ġm arks
Ġm ap
Ġlook in
Ġlight s
Ġli ves
Ġli on
Ġlearn ing
Ġle nt
Ġle ather
Ġle ap
Ġl im
Ġl ap
Ġl a
Ġknow in
Ġkn ee
Ġkitchen s
Ġk iss
Ġj et
Ġint rod
Ġincred ible
Ġimp o
Ġimpo ss
Ġimposs ible
Ġimp ati
Ġim med
Ġimmed i
Ġimmedi ately
Ġhood ed
Ġhis sing
Ġheav ily
Ġhe arts
Ġhappen ing
Ġha mb
Ġhamb ur
Ġhambur ger
Ġha m
Ġha iry
Ġh oped
Ġgu ess
Ġgr u
Ġgru bby
Ġgr own
Ġgloom y
Ġgl inting
Ġgl ared
Ġgl ancing
Ġgi ves
Ġg ul
Ġg rou
Ġg on
Ġgon na
Ġg ar
Ġg a
Ġfre ck
Ġfreck les
Ġfrantic ally
Ġforg ive
Ġfoo l
Ġflut tering
Ġflut tered
Ġfloor s
Ġflood ed
Ġfl ashed
Ġfire pl
Ġfirepl ace
Ġfind s
Ġfa ir
Ġf ur
Ġf ool
Ġfool ish
Ġf olk
Ġf old
Ġf le
Ġf itted
Ġf ault
Ġeye b
Ġeyeb rows
Ġey ed
Ġext reme
Ġextreme ly
Ġexc use
Ġexc itement
Ġend s
Ġempt ied
Ġeat en
Ġe verywhere
Ġe mb
Ġe ight
Ġe ff
Ġe ch
Ġe arn
Ġe arly
Ġdrink ing
Ġdream s
Ġdream ed
Ġdraw ing
Ġdown stairs
Ġdoub t
Ġdod ged
Ġdist ant
Ġdist ance
Ġdis co
Ġdis app
Ġdet ention
Ġdesper ately
Ġdelic ious
Ġdeep ly
Ġdeep er
Ġdec or
Ġdec ide
Ġde liver
Ġde fe
Ġde al
Ġd ying
Ġd ry
Ġd irty
Ġd art
Ġd am
Ġcurt ains
Ġcurs ed
Ġcrowd ed
Ġcreat ure
Ġcr un
Ġcrun ching
Ġcr ump
Ġcr ashed
Ġcount ed
Ġconfus ed
Ġconc ent
Ġconcent r
Ġcon strictor
Ġcold ly
Ġcol or
Ġclut ched
Ġcloak s
Ġclo ck
Ġcle ver
Ġcho ice
Ġche ck
Ġch ick
Ġch as
Ġcas ually
Ġcand y
Ġcan not
Ġc age
Ġburst ing
Ġburn ing
Ġbright ly
Ġbrand y
Ġbra ver
Ġbr ass
Ġbol t
Ġbo bbing
Ġbo a
Ġblo cked
Ġbl ur
Ġbl inking
Ġbl ame
Ġbit ter
Ġbeaut if
Ġbeautif ul
Ġbe et
Ġbe at
Ġbe ak
Ġbathro be
Ġbat tered
Ġbas k
Ġban qu
Ġbanqu et
Ġbag s
Ġb ull
Ġb other
Ġb ored
Ġb ite
Ġb es
Ġbes ide
Ġb art
Ġbart e
Ġbarte nder
Ġaw a
Ġaston ishing
Ġas ide
Ġarmch airs
Ġarg ue
Ġansw ered
Ġann oy
Ġan ger
Ġama zed
Ġama ze
Ġamaze ment
Ġam ong
Ġal che
Ġaddress ed
Ġac ce
Ġa j
Ġaj ar
ĠY et
ĠWizard s
ĠW or
ĠW as
ĠW and
ĠV ol
ĠV ery
ĠUnder ground
ĠU p
ĠU n
ĠThe se
ĠT en
ĠStone w
ĠStonew all
ĠSmelting s
ĠSever us
ĠSe ven
ĠSe pt
ĠSept e
ĠSepte mber
ĠR id
ĠRid ge
ĠPar v
ĠParv ati
ĠP at
ĠPat il
ĠOn ly
ĠOn ce
ĠO w
ĠO liver
ĠO U
ĠNo body
ĠNe xt
ĠN ick
ĠM arge
ĠL ord
ĠL ife
ĠL ev
ĠLev i
ĠJ oh
ĠJoh n
ĠJohn s
ĠJohns on
ĠHufflepuff s
ĠH at
ĠH ad
ĠGalle ons
ĠG u
ĠG ot
ĠG et
ĠFro g
ĠFri ar
ĠF in
ĠF am
ĠFam ous
ĠE m
ĠDev il
ĠD on
ĠD ed
ĠDed alus
ĠChas er
ĠCh arms
ĠCh amp
ĠChamp ions
ĠChampions hip
ĠC ould
ĠBl ack
ĠBeat ers
ĠB ott
ĠB ert
ĠBert ie
ĠB E
ĠAn ge
ĠAnge lin
ĠAngelin a
ĠAg es
ĠAg ain
ĠAgain st
ĠA lt
ĠAlt h
ĠAlth ough
ĠA bout
Ġ1 1
Ġ rough
Ġrough ly
Ġ id
âĢĻ .âĢĿ
âĢĻ ,âĢĿ
ye h
y ed
w o
ve l
us ed
ur ry
ung i
ung ed
uck y
u ly
u g
u ch
ter n
ter m
t wo
t led
ro yed
ro ve
rid ay
ri lliant
ri gg
ri b
raz il
r um
pe ar
our se
oun ced
ot e
os en
or ies
or g
op s
om b
nd ed
n ut
m at
m an
lock s
lo or
less ly
ks h
ite ly
ire s
ink led
im s
im ming
ill y
id y
id er
i ps
i ot
h ind
ge red
g l
g est
g es
g ar
fort unately
for med
f le
et y
er m
er a
eep ing
e ar
c use
c u
c raft
c ise
b y
b ack
aw ed
auldr ons
at ions
ark ing
ang led
an ced
ak er
ain ed
ag s
ag ging
a f
Y er
W ould
W ill
W ant
U FF
Some one
Sh ould
R u
R A
O ut
Ne xt
Ne arly
M ake
K eep
IN G
I Z
HA T
H ogwarts
F rom
F l
F irenze
E ven
D unno
D ad
C ourse
Bet ter
Any way
. âĢĻ
) ,
Ġyellow ish
Ġyawn ing
Ġwrest ling
Ġwre nched
Ġwor rying
Ġwi ped
Ġwho se
Ġwhist led
Ġwhee zing
Ġwh im
Ġwh ic
Ġwhic he
Ġwhiche ver
Ġweigh ing
Ġwe ird
Ġwe ar
Ġwa ist
Ġwa iled
Ġw rigg
Ġw om
Ġwom en
Ġw olf
Ġw o
Ġw ishing
Ġw ise
Ġw ife
Ġvisit ed
Ġvi o
Ġvio let
Ġvault s
Ġvac ation
Ġv ill
Ġvill age
Ġv ide
Ġvide o
Ġv ict
Ġv ast
Ġv amp
Ġv al
Ġus es
Ġur g
Ġup ward
Ġunicorn s
Ġunf old
Ġunder ground
Ġun e
Ġun c
Ġu na
Ġtw ist
Ġturn s
Ġtrou s
Ġtrous ers
Ġtri ump
Ġtri es
Ġtremb led
Ġtre acle
Ġtra ff
Ġtraff ic
Ġtr acks
Ġtow ered
Ġtor n
Ġtoad less
Ġth ump
Ġth r
Ġte aring
Ġte ap
Ġteap ot
Ġtall est
Ġtak in
Ġt ut
Ġt ucked
Ġt reat
Ġt ransf
Ġt ran
Ġt it
Ġt icked
Ġt art
Ġt ant
Ġtant rum
Ġt ank
Ġt alked
Ġswift ly
Ġsweat y
Ġsw ishing
Ġsw ish
Ġsw eeping
Ġsw a
Ġsurpr is
Ġsur round
Ġsun light
Ġsub st
Ġstuff ed
Ġstro ked
Ġstret ching
Ġstre ngth
Ġstra w
Ġstra ined
Ġstole n
Ġstiff ly
Ġste ak
Ġstam mered
Ġstaff room
Ġst umped
Ġst arts
Ġsquare s
Ġsqu eal
Ġspot s
Ġspl ut
Ġspect ac
Ġspe nd
Ġsp ying
Ġsp o
Ġsp le
Ġsp ind
Ġspind ly
Ġsp ace
Ġsound s
Ġsort ed
Ġsoon er
Ġso ld
Ġso bbing
Ġsnow y
Ġsne er
Ġsn uff
Ġsn ig
Ġsn eak
Ġsmi les
Ġsmall est
Ġsmall er
Ġslo ped
Ġslid ing
Ġsleep y
Ġsleep ing
Ġsleep ily
Ġsle pt
Ġsl umped
Ġsl ot
Ġsl am
Ġsky ward
Ġsixt een
Ġsing ing
Ġsim ple
Ġsil very
Ġsil k
Ġsid es
Ġshout ing
Ġshe lf
Ġshak en
Ġsh udd
Ġshudd ered
Ġsh ran
Ġshran k
Ġsh r
Ġsh own
Ġsh o
Ġsh ame
Ġsev enty
Ġser v
Ġsee ing
Ġsear ch
Ġse p
Ġsep ar
Ġse lf
Ġscri bbled
Ġscra ping
Ġscr atching
Ġsc a
Ġsca les
Ġsay in
Ġsaus age
Ġsand y
Ġsad ly
Ġsa f
Ġs way
Ġs unk
Ġs oul
Ġs ong
Ġs ink
Ġs illy
Ġs igh
Ġs ens
Ġrum ors
Ġru ined
Ġru bbing
Ġrow s
Ġrob e
Ġro aring
Ġro ar
Ġris ing
Ġri bs
Ġreturn ed
Ġrest a
Ġresta ur
Ġrestaur ant
Ġremind s
Ġrememb ers
Ġreferee ing
Ġref use
Ġrecogn ize
Ġre pt
Ġrept ile
Ġre pl
Ġre dd
Ġrais ing
Ġr umm
Ġr umbling
Ġr uff
Ġpun ish
Ġpun ching
Ġpump kin
Ġpuff ing
Ġproud ly
Ġprom ised
Ġpro dd
Ġpriv ate
Ġpretend ed
Ġpractic ing
Ġpot atoes
Ġpost c
Ġpostc ard
Ġplay ed
Ġpl unged
Ġpl ain
Ġpen al
Ġpenal ty
Ġpe lt
Ġpe ace
Ġpat ting
Ġpast y
Ġpart ner
Ġpain ful
Ġpa id
Ġp ushing
Ġp ure
Ġp ub
Ġp owd
Ġp ow
Ġpow ers
Ġp oked
Ġp ill
Ġpill ow
Ġp ict
Ġpict ure
Ġp et
Ġpet rified
Ġp ause
Ġp atch
Ġp arking
Ġp al
Ġout st
Ġord ered
Ġord er
Ġold est
Ġo kay
Ġnow here
Ġnorm ally
Ġnight time
Ġneed n
Ġne igh
Ġneigh b
Ġn on
Ġn atur
Ġn ail
Ġmut ter
Ġmust n
Ġmove ment
Ġmount ains
Ġmon st
Ġmom ents
Ġmist y
Ġmist aking
Ġmet al
Ġmer cy
Ġmeas ure
Ġme m
Ġme lt
Ġmark ings
Ġmar oon
Ġmagic al
Ġm uffled
Ġm ice
Ġm es
Ġmes e
Ġmese lf
Ġm edd
Ġm arm
Ġmarm al
Ġmarmal ade
Ġm akes
Ġlow ered
Ġlong er
Ġli p
Ġli king
Ġli cking
Ġle vel
Ġla id
Ġl ove
Ġl og
Ġlog ic
Ġl ately
Ġkn uck
Ġkn o
Ġkno bb
Ġknobb ly
Ġkn ick
Ġknick er
Ġknicker b
Ġknickerb ock
Ġkey h
Ġkeyh ole
Ġket tle
Ġke en
Ġjump ing
Ġjack et
Ġj ost
Ġjost led
Ġj ew
Ġj aws
Ġj am
Ġir rit
Ġirrit ably
Ġinter ru
Ġinterru pted
Ġinst ant
Ġin f
Ġimpati ently
Ġimp rove
Ġign ore
Ġide as
Ġid iot
Ġic y
Ġhum med
Ġhum ans
Ġhu gged
Ġho ot
Ġho ar
Ġhoar se
Ġhit ting
Ġhead ed
Ġhe aven
Ġhat s
Ġhand ing
Ġhair c
Ġh onestly
Ġguard in
Ġgrow ls
Ġgri pped
Ġgri p
Ġgrate ful
Ġgrand f
Ġgrandf ather
Ġgr uff
Ġgruff ly
Ġgr im
Ġgr as
Ġgr an
Ġgood ness
Ġgo in
Ġgo ble
Ġgle e
Ġgle aming
Ġgl owing
Ġgl iding
Ġgl ided
Ġgl aring
Ġgl anced
Ġgl ance
Ġg ig
Ġgig antic
Ġg ate
Ġg at
Ġgat hered
Ġfrown ing
Ġfright ening
Ġfree zing
Ġfr ame
Ġfor t
Ġfort une
Ġfor k
Ġfold ed
Ġflut ter
Ġflo pped
Ġflick ering
Ġfle et
Ġflat ten
Ġfl ushed
Ġfl icked
Ġfl avor
Ġfl aming
Ġfist s
Ġfirm ly
Ġfir s
Ġfing er
Ġfin ish
Ġfield s
Ġfav ored
Ġfa iled
Ġf udge
Ġf oul
Ġf ought
Ġf ond
Ġf it
Ġexplain ing
Ġexam ined
Ġevery thin
Ġevery body
Ġesc ape
Ġes pe
Ġespe ci
Ġespeci ally
Ġeng ine
Ġen e
Ġen c
Ġeff ort
Ġech o
Ġecho ed
Ġeas ier
Ġear l
Ġearl ier
Ġeag le
Ġdunge on
Ġdue l
Ġdro ps
Ġdro pping
Ġdri ven
Ġdri ft
Ġdown ward
Ġdoor mat
Ġdo zen
Ġdis cus
Ġdifficul ty
Ġdet erm
Ġdeterm ined
Ġdest royed
Ġdem anded
Ġdef in
Ġdefin itely
Ġde af
Ġdeaf ening
Ġd w
Ġd read
Ġd ra
Ġd awn
Ġd ashing
Ġd ashed
Ġd aring
Ġd ared
Ġd ang
Ġdang ling
Ġd ancing
Ġd a
Ġcurs ing
Ġcur led
Ġcrump led
Ġcro aked
Ġcountry side
Ġcount ing
Ġcop ying
Ġcont in
Ġconfus ion
Ġconcentr ate
Ġcon v
Ġcom m
Ġcollect ing
Ġcold er
Ġcoat s
Ġco ver
Ġco olly
Ġcloud s
Ġclose ly
Ġclimb ing
Ġcl iff
Ġchick en
Ġcheer fully
Ġcheer ful
Ġche ered
Ġche cking
Ġchas ing
Ġch osen
Ġch oked
Ġch ip
Ġch im
Ġch alk
Ġch airs
Ġcenta urs
Ġcand les
Ġcan n
Ġcann on
Ġcalm ly
Ġca ptain
Ġc rou
Ġc ow
Ġc ous
Ġcous in
Ġc ost
Ġc ool
Ġc auldrons
Ġc ared
Ġc am
Ġcam era
Ġc ack
Ġc abb
Ġbush y
Ġbuild ing
Ġbu ying
Ġbu ried
Ġbro ad
Ġbri ck
Ġbra very
Ġbra ins
Ġbox es
Ġbol ted
Ġbo ils
Ġbo iling
Ġblur ted
Ġblo ody
Ġbl own
Ġbl ow
Ġbl inding
Ġbitter ly
Ġbig gest
Ġbig ger
Ġbew ild
Ġbewild ered
Ġbelong ed
Ġbeh aving
Ġbeg in
Ġbe z
Ġbez o
Ġbezo ar
Ġbe ef
Ġbe an
Ġbe amed
Ġbat tle
Ġbask et
Ġban ner
Ġball oon
Ġbad ge
Ġback s
Ġback ed
Ġbab ble
Ġb un
Ġb ree
Ġb ot
Ġbot hered
Ġb oring
Ġb on
Ġb itten
Ġb ish
Ġbish op
Ġb ank
Ġb and
Ġaward ed
Ġatt ract
Ġatt ack
Ġat e
Ġask in
Ġarmch air
Ġarg u
Ġap pear
Ġan k
Ġank les
Ġalche my
Ġal arm
Ġadv ice
Ġadmir ing
Ġact ing
Ġacc ident
Ġa mb
ĠY er
ĠWizard ry
ĠWand s
ĠW it
ĠW ed
ĠWed n
ĠWedn es
ĠWednes day
ĠW HAT
ĠUn fortunately
ĠT ues
ĠTues day
ĠT ransfiguration
ĠSp inn
ĠSpinn et
ĠSome one
ĠSick les
ĠSh ould
ĠS pe
ĠS oon
ĠS omething
ĠS m
ĠS ide
ĠRon ald
ĠP ut
ĠP uce
ĠPuce y
ĠP ro
ĠPro phe
ĠProphe t
ĠP lease
ĠP l
ĠP ince
ĠOllivand ers
ĠOU T
ĠO ver
ĠO ur
ĠO f
ĠO R
ĠO F
ĠNor we
ĠNorwe g
ĠNorweg ian
ĠN ich
ĠNich olas
ĠN ah
ĠM aybe
ĠLevi os
ĠL ike
ĠJ uly
ĠIt s
ĠHow ever
ĠHer bs
ĠH an
ĠHan na
ĠHanna h
ĠH am
ĠH a
ĠGu ide
ĠFin ally
ĠF ungi
ĠF riday
ĠF irst
ĠF OR
ĠEx p
ĠEn gl
ĠDid n
ĠDe f
ĠDef ense
ĠD ragon
ĠD is
ĠD a
ĠDa ily
ĠD U
ĠD O
ĠC ro
ĠCro ck
ĠCrock f
ĠCrockf ord
ĠC on
ĠC od
ĠC ent
ĠBe hind
ĠBe fore
ĠB rit
ĠBrit ain
ĠB razil
ĠB inn
ĠBinn s
ĠB est
ĠB ell
ĠAl g
ĠAlg ie
ĠAg ri
ĠAgri pp
ĠAgripp a
ĠA str
ĠAstr on
ĠAstron om
ĠAstronom y
ĠA p
ĠAp ot
ĠApot he
ĠApothe c
ĠApothec ary
ĠA d
Ġ ing
Ġing red
Ġingred i
Ġingredi ents
Ġ 3
Ġ /
Ġ "...
âĢĻ ?âĢĿ
z z
z y
y s
w ord
w ood
v y
v or
v iously
ut ion
ut e
ur ity
un ting
umb er
um s
udden ly
udd le
ud ged
ud ents
u gs
u ft
u ced
to e
ss y
s ix
ro ll
rid ge
rib ly
re vor
re nt
re fect
re en
r ing
r ass
p ared
ow ly
ound s
org an
or rowed
or is
oo t
ong ue
ond u
ond er
ond ay
on y
omet imes
om as
od ern
od el
oc us
n y
n ew
mon y
mi es
mas ter
m oon
m ist
lyther in
l p
l owly
kn own
k ins
ix ing
it er
ir s
ink ling
ing ing
ing ard
ingard ium
in ation
ims y
im ble
if ty
ien ce
id night
id ly
ic ent
hing s
h and
h alf
gg ing
g rown
g r
g al
f ting
f loor
f l
f all
et ed
ert s
er ic
ent h
ent ed
en ius
ct ure
ct ions
c r
c on
c ent
ble s
be us
bb er
b erry
b ell
b bles
at tering
at form
ash ion
as ure
as es
ap ers
an ces
all op
ag m
acle s
ac ing
abb y
abb ed
a iled
Y et
W onder
W ith
W ingardium
W as
W AR
V ernon
V E
Un less
U D
T ake
T CH
St udents
St ay
S lytherin
S end
S e
S c
S ay
S T
Ru bbish
Re ady
P lease
OO L
O y
O nce
N ah
M ust
M iss
M ars
LE Y
L ucky
L ight
L ee
L e
L L
I TCH
Hell o
He y
H urry
H ope
H ave
H ang
G ryffindor
G riphook
G RYFFINDOR
F unny
F ollow
E x
D ark
Ch arlie
Be fore
B rilliant
B ack
Any one
A unt
Ġzo oming
Ġz oo
Ġz omb
Ġzomb ie
Ġz ig
Ġzig z
Ġzigz agging
Ġyer self
Ġyell ing
Ġyawn ed
Ġwrist w
Ġwrigg led
Ġwr ite
Ġwr inkled
Ġwor m
Ġworm wood
Ġwolf s
Ġwolfs b
Ġwolfsb ane
Ġwitch craft
Ġwindows ill
Ġwind ing
Ġwild er
Ġwhist ling
Ġwhis kers
Ġwhis k
Ġwhir led
Ġwhir l
Ġwhee led
Ġwh oo
Ġwerew ol
Ġwerewol ves
Ġweird os
Ġwe lcome
Ġwast ep
Ġwastep aper
Ġwast e
Ġwas h
Ġwand ered
Ġwa x
Ġw ins
Ġw ig
Ġw ider
Ġw at
Ġw ard
Ġw al
Ġwal nut
Ġvisit or
Ġvis ible
Ġvict ory
Ġvi ole
Ġviole nt
Ġvi br
Ġvan ish
Ġvamp ires
Ġval u
Ġvalu able
Ġv ig
Ġvig or
Ġvigor ously
Ġv el
Ġvel v
Ġurg ently
Ġur ged
Ġup right
Ġup on
Ġunw ra
Ġunwra pping
Ġunt idy
Ġunfold ing
Ġune asy
Ġunderst ood
Ġunc ertainly
Ġuna ble
Ġun se
Ġun lock
Ġunlock ed
Ġun known
Ġun bl
Ġunbl inking
Ġunblinking ly
Ġun be
Ġty ke
Ġtwist ing
Ġtwig s
Ġtw inkling
Ġtrust ed
Ġtroll s
Ġtro d
Ġtrod den
Ġtriump h
Ġtrick y
Ġtri pped
Ġtri fle
Ġtremb lin
Ġtre asure
Ġtransf ixed
Ġtran sp
Ġtra pped
Ġtra iling
Ġtr ot
Ġtow ers
Ġtou ching
Ġtou ches
Ġtor t
Ġtor ches
Ġtoad s
Ġto ys
Ġto t
Ġto oth
Ġtooth less
Ġtit les
Ġtim idly
Ġtight ened
Ġthr ashing
Ġthought fully
Ġthere fore
Ġth under
Ġth ud
Ġth inn
Ġter ror
Ġtelescope s
Ġte nd
Ġte ar
Ġtast ed
Ġtast e
Ġtap est
Ġtall er
Ġt unn
Ġt une
Ġt ugg
Ġt uft
Ġt ub
Ġt ongue
Ġt ipped
Ġt ip
Ġt ing
Ġt ied
Ġt idy
Ġt ent
Ġt edd
Ġtedd y
Ġt angled
Ġt ack
Ġswe pt
Ġsway ed
Ġswa pped
Ġsw orn
Ġsw ore
Ġsw imming
Ġsw ell
Ġswell ed
Ġsw arm
Ġsus p
Ġsurround ing
Ġsurpris es
Ġsure ly
Ġsubst ance
Ġsubject s
Ġsu gar
Ġsu ff
Ġsuff ering
Ġstut tering
Ġstut ter
Ġstupid ly
Ġstuff ing
Ġstud ent
Ġstri ct
Ġstream ing
Ġstream ed
Ġstre ets
Ġstraight ened
Ġstra ining
Ġstr ay
Ġstr ang
Ġstrang ers
Ġstool s
Ġsto at
Ġstick y
Ġste ering
Ġste am
Ġste ady
Ġste ad
Ġstart led
Ġstal agm
Ġstal act
Ġstairc ases
Ġstack ed
Ġst rid
Ġstrid ing
Ġst ories
Ġst ones
Ġst ate
Ġst ar
Ġst ag
Ġspr inting
Ġspr ing
Ġspo il
Ġsplut tered
Ġsple nd
Ġsplend id
Ġspir its
Ġspeech less
Ġspectac ular
Ġspect acles
Ġsp ill
Ġsp id
Ġspid ers
Ġsp at
Ġsort a
Ġso aring
Ġso ared
Ġsnuff bo
Ġsnuffbo x
Ġsnow ball
Ġsnig gered
Ġsnake li
Ġsnakeli k
Ġsnakelik e
Ġsna p
Ġsn ort
Ġsnort ed
Ġsn o
Ġsno o
Ġsn eered
Ġsn ee
Ġsmooth ly
Ġsm art
Ġsli pping
Ġsli pp
Ġsle ev
Ġsleev es
Ġslam ming
Ġsl ug
Ġsl owed
Ġsl ip
Ġsk inny
Ġsk imming
Ġsign ed
Ġsid led
Ġsick ening
Ġshut ting
Ġshriek s
Ġshri ll
Ġshort c
Ġsho pping
Ġshak ily
Ġshadow y
Ġsh uff
Ġshuff ling
Ġsh rive
Ġshrive led
Ġsh ove
Ġsh oot
Ġsh oes
Ġsh ining
Ġsh aring
Ġsh ared
Ġsh ag
Ġshag gy
Ġsh ack
Ġsh abby
Ġsev enth
Ġset ting
Ġserv ant
Ġser p
Ġserp ent
Ġser iously
Ġsens es
Ġsee k
Ġsec urity
Ġsear ched
Ġscree ched
Ġscree ch
Ġscream s
Ġscraw ny
Ġscramb ling
Ġscr uff
Ġscr atch
Ġsc ut
Ġscut tled
Ġsc rew
Ġscrew ed
Ġsc ow
Ġsc ored
Ġsc attering
Ġsaf est
Ġsa v
Ġsa iled
Ġsa gged
Ġsa cked
Ġs y
Ġs unny
Ġs ore
Ġs inking
Ġs in
Ġs ession
Ġs elling
Ġs ched
Ġsched u
Ġschedu les
Ġrumm aging
Ġru b
Ġroot ed
Ġroom s
Ġroll s
Ġroll ing
Ġrock er
Ġro ots
Ġrid icul
Ġridicul ous
Ġrid e
Ġri pping
Ġri p
Ġri fle
Ġri ch
Ġrestaurant s
Ġrememb ering
Ġrem ote
Ġrefle ctions
Ġredd er
Ġreck ons
Ġrec ent
Ġreas ons
Ġreach ing
Ġre ve
Ġreve al
Ġre v
Ġrev ol
Ġrevol ting
Ġre ser
Ġreser ve
Ġre fere
Ġre ar
Ġrat ions
Ġra pped
Ġra ise
Ġr ush
Ġr uddy
Ġr ise
Ġr ay
Ġr as
Ġr ack
Ġrack et
Ġqu ivered
Ġput s
Ġpunish ment
Ġpun cture
Ġpudd ing
Ġpu zz
Ġpuzz le
Ġpu bl
Ġpubl ic
Ġprote ction
Ġprote cted
Ġprom ise
Ġprodd ed
Ġpro gr
Ġprogr am
Ġpro d
Ġpri ck
Ġprick led
Ġpre ss
Ġpre pared
Ġpre c
Ġprec ious
Ġpr oo
Ġproo f
Ġpowd ered
Ġpound ing
Ġpost age
Ġpos it
Ġportrait s
Ġpor ridge
Ġpol ite
Ġpoison ous
Ġpo pped
Ġpl ainly
Ġpick ing
Ġpi les
Ġphot os
Ġpers u
Ġpersu ade
Ġper formed
Ġper ched
Ġpe lting
Ġpat ted
Ġpast ies
Ġpassage ways
Ġpass word
Ġpass es
Ġpart y
Ġpart ies
Ġpart ed
Ġpain fully
Ġpack ing
Ġpa used
Ġpa j
Ġpaj am
Ġpajam as
Ġp ush
Ġp up
Ġpup ils
Ġp ou
Ġp ok
Ġpok er
Ġp itch
Ġp awed
Ġp apers
Ġp age
Ġp aces
Ġp aced
Ġown er
Ġovert ake
Ġover he
Ġoutst anding
Ġord ers
Ġon ward
Ġoff end
Ġoffend ed
Ġodd ly
Ġob ject
Ġo y
Ġoy t
Ġo cc
Ġnumb ers
Ġnois y
Ġnois es
Ġno ble
Ġnightmare s
Ġnet tle
Ġneighb ors
Ġneed les
Ġneed le
Ġneat ly
Ġnear by
Ġne phe
Ġnephe w
Ġnatur al
Ġnast ily
Ġnar rowed
Ġnail s
Ġn uts
Ġn ic
Ġnic er
Ġn ib
Ġnib ble
Ġn agging
Ġmouth s
Ġmouth ful
Ġmount ed
Ġmother s
Ġmot ion
Ġmonst rou
Ġmonstrou s
Ġmon ksh
Ġmonksh ood
Ġmo ons
Ġmo les
Ġmoles kin
Ġmiser able
Ġmis ery
Ġmess ing
Ġmem ory
Ġmelt ed
Ġmeas uring
Ġmeas ured
Ġme al
Ġmat ches
Ġmar ried
Ġman e
Ġmad ly
Ġm ouse
Ġm old
Ġmold y
Ġm ixing
Ġm il
Ġmil k
Ġm en
Ġm ater
Ġmater i
Ġmateri al
Ġm aster
Ġm ass
Ġmass ive
Ġm ain
Ġm ah
Ġmah og
Ġmahog any
Ġm ag
Ġmag n
Ġmagn if
Ġmagnif icent
Ġlunch time
Ġloud est
Ġlong ing
Ġlo ved
Ġlo os
Ġloos ening
Ġlo op
Ġlisten ed
Ġlim ped
Ġlight er
Ġlight ed
Ġlift ed
Ġli ver
Ġli qu
Ġliqu id
Ġlet ting
Ġle ngth
Ġle ge
Ġlege nd
Ġlast ed
Ġl um
Ġlum in
Ġlumin ous
Ġl oy
Ġloy al
Ġl oo
Ġl ing
Ġl ined
Ġl id
Ġl awn
Ġl ar
Ġl anding
Ġl and
Ġl an
Ġl am
Ġlam pl
Ġlampl ike
Ġl ady
Ġl ad
Ġlad en
Ġknuck les
Ġknickerbock ers
Ġkn ack
Ġkind ly
Ġkill ing
Ġkill in
Ġket ch
Ġketch up
Ġkeep s
Ġk is
Ġkis sed
Ġk ing
Ġjew el
Ġjer k
Ġjack ets
Ġj oy
Ġj our
Ġjour ney
Ġj ol
Ġjol t
Ġj og
Ġj in
Ġjin x
Ġj eal
Ġjeal ous
Ġj ars
Ġj ar
Ġj ammed
Ġj abbed
Ġir on
Ġinv ented
Ġintrod uced
Ġintrod uce
Ġinter f
Ġinterf ering
Ġint e
Ġinte r
Ġinter fere
Ġins ul
Ġins isted
Ġins ist
Ġins id
Ġinsid es
Ġinf us
Ġinfus ion
Ġin formed
Ġin form
Ġimportant ly
Ġimag ined
Ġimag ination
Ġhur ting
Ġhung rily
Ġhung er
Ġhu gging
Ġhow ls
Ġhot el
Ġhorn s
Ġhor rified
Ġhor ribly
Ġhoot ed
Ġhoo ves
Ġhoo k
Ġho vered
Ġho pped
Ġhelp ing
Ġheaven s
Ġheav ier
Ġheart str
Ġhead master
Ġhe s
Ġhes it
Ġhesit ated
Ġhe ro
Ġhe el
Ġhe ap
Ġhe a
Ġhea ved
Ġhat es
Ġhapp ier
Ġhanging s
Ġhands ome
Ġhand ful
Ġham mering
Ġhairc ut
Ġhair s
Ġha w
Ġhaw k
Ġh ushed
Ġh un
Ġhun ched
Ġh umb
Ġhumb ugs
Ġh uddle
Ġh on
Ġhon or
Ġh olly
Ġh ing
Ġh atching
Ġh ar
Ġhar b
Ġharb or
Ġgul ped
Ġgul p
Ġgu il
Ġguil ty
Ġgrou ps
Ġgrou p
Ġgrim ly
Ġgreen h
Ġgre ed
Ġgre asy
Ġgrand m
Ġgrandm other
Ġgra vy
Ġgr ump
Ġgrump ily
Ġgr inning
Ġgr ad
Ġgoble t
Ġgo lf
Ġglo ves
Ġgl owed
Ġgl ory
Ġgl itt
Ġglitt ered
Ġgl im
Ġgate way
Ġgas ps
Ġgas ping
Ġgas p
Ġgar l
Ġgarl ic
Ġgall oping
Ġgall ery
Ġg it
Ġg ift
Ġg ent
Ġgent le
Ġg enius
Ġg aw
Ġg ather
Ġgather ing
Ġg ap
Ġg ames
Ġfro zen
Ġfro gs
Ġfright en
Ġfour th
Ġfor ty
Ġfor m
Ġfootst ool
Ġfollow s
Ġfollow ers
Ġflo ated
Ġflick ered
Ġflat ly
Ġfl ung
Ġfl ow
Ġfl itted
Ġfl ipped
Ġfl ight
Ġfl ared
Ġfire s
Ġfire cr
Ġfirecr ack
Ġfin er
Ġfif th
Ġfierce ly
Ġfew er
Ġfeeling s
Ġfee ble
Ġfeast s
Ġfe ed
Ġfe ared
Ġfav ors
Ġfast est
Ġfall ing
Ġfaint ly
Ġfaint est
Ġfad ing
Ġfa ith
Ġfa il
Ġfa ced
Ġfaced own
Ġf ut
Ġfut ure
Ġf ury
Ġf um
Ġf rying
Ġf reed
Ġf ou
Ġf ling
Ġf ed
Ġf ashion
Ġf as
Ġfas c
Ġfasc in
Ġf an
Ġf ame
Ġextra ord
Ġextraord inary
Ġexpect ing
Ġexp ress
Ġexpress ion
Ġexcit ing
Ġexam ine
Ġex er
Ġexer cise
Ġex ch
Ġex as
Ġexas per
Ġev ents
Ġesc ap
Ġescap ing
Ġesc al
Ġescal at
Ġescalat or
Ġer u
Ġeru pted
Ġenjoy s
Ġenjoy ing
Ġene mies
Ġenc lo
Ġen tering
Ġen ter
Ġempt ying
Ġemb ar
Ġembar rass
Ġembarrass ed
Ġel bow
Ġed ged
Ġears h
Ġearsh ot
Ġe qu
Ġequ ip
Ġequip ment
Ġdw ell
Ġdust y
Ġdrink s
Ġdrink er
Ġdrift ed
Ġdri ving
Ġdread ing
Ġdraw n
Ġdraw ling
Ġdra ined
Ġdr unk
Ġdr own
Ġdrown ed
Ġdown right
Ġdou ble
Ġdormit ories
Ġdoor st
Ġdoorst ep
Ġdoor kn
Ġdoorkn o
Ġdoorkno b
Ġdist ur
Ġdistur b
Ġdisgust ing
Ġdisg r
Ġdisgr unt
Ġdisgrunt led
Ġdiscus s
Ġdisco very
Ġdisco ver
Ġdisapp ro
Ġdisappro ving
Ġdisapp o
Ġdis li
Ġdirect ions
Ġdire ctor
Ġdi al
Ġdet ent
Ġdetent ions
Ġdes ks
Ġdes ire
Ġdes er
Ġdem and
Ġdel ayed
Ġdefe at
Ġdecor ations
Ġdecor ation
Ġdead ly
Ġde pt
Ġdept hs
Ġde p
Ġdart ing
Ġdart ed
Ġdam age
Ġd unno
Ġd under
Ġdunder head
Ġd ump
Ġd ull
Ġd ucked
Ġd ried
Ġd ough
Ġd ess
Ġdess erts
Ġd ense
Ġd ate
Ġd at
Ġdat es
Ġcry st
Ġcryst al
Ġcrowd s
Ġcrou ching
Ġcro oked
Ġcreep y
Ġcreature s
Ġcream s
Ġcrack s
Ġcrack ing
Ġcrack ers
Ġcrack ed
Ġcr is
Ġcr ime
Ġcr ashing
Ġcr aning
Ġcr ammed
Ġcour ty
Ġcourty ard
Ġcounter c
Ġcounterc urse
Ġcou ghed
Ġcop y
Ġconv in
Ġconvin ced
Ġcontin ue
Ġcont r
Ġcontr ary
Ġcont ained
Ġconfus ing
Ġconcern ed
Ġcomp ared
Ġcomp any
Ġcomfort ing
Ġcomfort able
Ġcom pl
Ġcompl ic
Ġcomplic ated
Ġcom ment
Ġcol ors
Ġco zy
Ġco vers
Ġco pper
Ġco con
Ġcocon ut
Ġcloud y
Ġcle nched
Ġclassroom s
Ġcl ues
Ġcl ue
Ġcl ick
Ġcl aws
Ġcl as
Ġclas ped
Ġcl ap
Ġcl amber
Ġcl am
Ġclam ped
Ġcirc um
Ġcircum st
Ġcircumst ances
Ġcirc ling
Ġcho osing
Ġcho ose
Ġcho os
Ġchoos es
Ġchim ney
Ġchild re
Ġchildre n
Ġche w
Ġche cked
Ġchat tering
Ġchat ter
Ġch ort
Ġchort led
Ġch ops
Ġch oking
Ġch ipped
Ġch ased
Ġch arms
Ġch arm
Ġch ar
Ġch anging
Ġcent ury
Ġcelebr ate
Ġce re
Ġcare t
Ġcaret aker
Ġcare less
Ġcar ved
Ġcar p
Ġcall s
Ġcall ing
Ġcack led
Ġcabb age
Ġca ution
Ġc raz
Ġcraz y
Ġc raw
Ġcraw ling
Ġc ondu
Ġc ars
Ġburn ed
Ġbuck le
Ġbuck et
Ġbu bbles
Ġbree ze
Ġbreath lessly
Ġbreat hed
Ġbrave ly
Ġbra in
Ġbr is
Ġbris k
Ġbrisk ly
Ġbound ed
Ġbon n
Ġboard ed
Ġbo ssy
Ġbo og
Ġbo iled
Ġbo ar
Ġboar h
Ġboarh ound
Ġblond e
Ġblo ck
Ġbl ushed
Ġbl ood
Ġbl is
Ġblis tering
Ġbl ink
Ġbl ast
Ġbl a
Ġbla zing
Ġbill owing
Ġbew itching
Ġbelie ves
Ġbeg ins
Ġbeet le
Ġbed s
Ġbe ating
Ġbe ady
Ġbathro bes
Ġbasket ball
Ġbas ic
Ġbag gy
Ġb unny
Ġb unch
Ġb ul
Ġbul ging
Ġb udge
Ġb oun
Ġboun cing
Ġb orrowed
Ġb orrow
Ġb is
Ġbis cu
Ġbiscu its
Ġb inding
Ġb id
Ġb angs
Ġb anging
Ġb anged
Ġb aked
Ġawa it
Ġaw k
Ġawk ward
Ġas s
Ġas ph
Ġasph odel
Ġas ke
Ġaske w
Ġas h
Ġash amed
Ġargu ing
Ġarg um
Ġar riv
Ġar med
Ġappear ance
Ġapp l
Ġappl ause
Ġanx ious
Ġannoy ing
Ġann ounced
Ġanim al
Ġang les
Ġan ci
Ġanci ent
Ġamb it
Ġambit ion
Ġam use
Ġal oud
Ġair pl
Ġairpl ane
Ġag ree
Ġag ony
Ġafter ward
Ġadm itted
Ġad mi
Ġact ually
Ġaccident ally
Ġacce pted
Ġacce pt
Ġacc id
Ġaccid ents
Ġa cted
ĠY or
ĠYor ksh
ĠYorksh ire
ĠY ew
ĠWor se
ĠWit hin
ĠW ing
ĠW est
ĠW IZ
ĠWIZ AR
ĠWIZAR D
ĠWIZARD RY
ĠV C
ĠVC R
ĠU se
ĠU nderneath
ĠTw ent
ĠTwent i
ĠTwenti eth
ĠTw elve
ĠTo o
ĠTh urs
ĠThurs day
ĠTh ose
ĠTh omas
ĠT ry
ĠT revor
ĠT r
ĠT old
ĠT erry
ĠT ell
ĠT ap
ĠT R
ĠT H
ĠStud y
ĠStud ents
ĠSt ill
ĠSt anding
ĠSpe lls
ĠSick le
ĠSh ooting
ĠSee kers
ĠSe lf
ĠS w
ĠS us
ĠSus an
ĠS ure
ĠS und
ĠSund ay
ĠS now
ĠSnow y
ĠS lowly
ĠS il
ĠS et
ĠS end
ĠS CH
ĠSCH OOL
ĠRon n
ĠRonn ie
ĠRidge back
ĠRe cent
ĠRavenclaw s
ĠR u
ĠRu beus
ĠR ed
ĠQu ite
ĠPl atform
ĠPer ched
ĠP res
ĠPres ident
ĠP refect
ĠP oor
ĠP olk
ĠPolk iss
ĠP le
ĠP ere
ĠPere n
ĠPeren ell
ĠPerenell e
ĠOw ls
ĠOw l
ĠO uter
ĠO dd
ĠNot hing
ĠN ine
ĠN ice
ĠN OT
ĠMom my
ĠM uch
ĠM organ
ĠMorgan a
ĠM ore
ĠM onday
ĠM odern
ĠM ind
ĠM imsy
ĠM ight
ĠM er
ĠMer lin
ĠM ars
ĠM A
ĠLevios al
ĠL oo
ĠLoo king
ĠL ittle
ĠL i
ĠL e
ĠLe g
ĠL ave
ĠLave nder
ĠK ey
ĠKey s
ĠK ent
ĠK eep
ĠJ im
ĠJ ell
ĠIn st
ĠInst ead
ĠI ckle
ĠI N
ĠH or
ĠH ope
ĠH og
ĠH ig
ĠHig gs
ĠH ar
ĠH alf
ĠGr unning
ĠGrunning s
ĠGr ind
ĠGrind el
ĠGrindel w
ĠGrindelw ald
ĠGet ting
ĠG ra
ĠG old
ĠGold en
ĠG RYFFINDOR
ĠFor get
ĠFirst ies
ĠF rom
ĠF ollow
ĠF irs
ĠF ear
ĠExp ress
ĠEx actly
ĠEvery body
ĠEngl and
ĠEm p
ĠEmp or
ĠEmpor ium
ĠEm eric
ĠE v
ĠE ey
ĠEey lo
ĠEeylo ps
ĠE ach
ĠDe velo
ĠDevelo p
ĠDevelop ments
ĠDU M
ĠDUM B
ĠDUMB LE
ĠDUMBLE DOR
ĠDUMBLEDOR E
ĠD unno
ĠD uddy
ĠD ad
ĠCod sw
ĠCodsw allop
ĠCent ury
ĠC le
ĠC ere
ĠCere mony
ĠC a
ĠCa ptain
ĠC RA
ĠC O
ĠBl imey
ĠBE D
ĠB right
ĠB oy
ĠB oth
ĠB og
ĠBog ies
ĠB ody
ĠB it
ĠB ars
ĠAunt ie
ĠAny one
ĠAd ri
ĠAdri an
ĠA nt
ĠAnt i
ĠA h
ĠA f
ĠAf ric
ĠA N
ĠA L
ĠAL B
ĠALB U
ĠALBU S
Ġ1 9
Ġ19 4
Ġ194 5
Ġ ou
Ġou nce
Ġ ille
Ġille gal
Ġ ick
Ġick le
Ġ 4
Ġ "
âĢĻ .
wh ite
w ter
very one
ver ing
ve led
v o
v a
ute ly
ut hin
uthin q
ust ed
us ually
urs es
urs ed
uri ous
ur d
up s
umm ing
ull o
ugg le
ud ging
uck ing
u ndred
u id
ter ge
terge ist
t on
t il
t hen
sh ine
s he
ro ken
ro bably
rif ic
rid e
ri es
res s
Ġimp ress
rer s
re ly
re ls
ra co
r n
pp osed
pp ose
ple ased
p ost
p ocus
ow s
ove red
out hed
ou ched
ott a
ore s
or a
op es
on f
on ed
om ora
ol utely
ol um
ok es
od ing
ock er
o ons
n osed
n is
n ine
n e
n ate
mist ress
m outhed
lo h
loh omora
ll ow
let ch
letch ley
l k
j ured
ive ly
it es
ist s
ish ly
ir t
ir ring
ins on
il t
ight ed
ic y
ic ious
ic al
i est
he m
he e
gl ass
glass es
g reen
g o
g ive
fl av
flav ored
ff ee
f oot
f ive
f ace
et ch
ers by
e x
e veryone
e pt
d y
d own
d on
d id
ce pt
c overed
c ond
c ol
bs olutely
br own
bb ling
b viously
b ounds
aught y
at ic
as ions
as ily
as hes
art y
ark inson
ard s
ar ter
ar gh
aps ible
ant ing
ant astic
alk ing
agic al
ag ged
ad ed
a ves
Y T
YT H
What ever
Wh ile
WAR T
WART S
W ow
W on
W ITCH
WITCH C
WITCHC RA
WITCHCRA F
WITCHCRAF T
W HA
WHA M
V oldemort
V o
V ault
UFF LE
UFFLE P
UFFLEP UFF
UD E
UDE NT
UDENT S
U se
The se
Th ose
Th irty
Th ird
Th ank
T wo
T urn
T r
T hings
T ell
T aking
St ill
St and
Sh h
Shh h
Se cond
Sc abbers
ST UDENTS
S w
S uddenly
S pe
S ometimes
S LEY
S H
Ron an
Re ally
R SLEY
Qu idditch
Qu ick
P l
P ig
P et
P eople
P ath
P ass
O w
O NT
O G
OG WARTS
Ne ither
N one
N ine
N E
M ost
M m
M in
M ight
M idnight
M erry
M aster
M agical
M E
L ocker
L ittle
L ike
L as
L I
L D
K new
K ept
J ordan
IZ E
I LL
I C
He re
He ad
H ullo
H onestly
H alf
H ad
H UFFLEPUFF
H OGWARTS
Gr ingotts
G reat
G ran
F our
F in
F ilch
F ifty
Ex cuse
E ver
E n
E T
E R
E IZE
Did n
D ursley
D ucking
D ragon
D raco
D ou
D oris
D ear
Could n
Ch ristmas
C he
C all
Bl own
Bl imey
B ye
B udge
B less
B ind
B in
B ane
Al ways
Al bus
Al as
A hem
A bsolutely
� �
ł âĢĿ
ĠâĢĿ ).
ĠâĢľ âĢ�
ĠâĢľâĢ� �
ĠâĢľ .
ĠâĢľ. .
ĠâĢľ.. .
Ġzoo med
Ġzoo m
Ġyoung st
Ġyoungst ers
Ġyou th
Ġyer selves
Ġyell s
Ġye lp
Ġye l
Ġyel ps
Ġy ard
Ġwrong ly
Ġwristw atch
Ġwristw at
Ġwristwat ches
Ġwrist s
Ġwrigg les
Ġwrest led
Ġwrest le
Ġwr ote
Ġwr iter
Ġwr inging
Ġwound ed
Ġwork s
Ġwood s
Ġwolf ing
Ġwo ven
Ġwo ole
Ġwoole n
Ġwo hs
Ġwohs i
Ġwizard ry
Ġwizard in
Ġwith in
Ġwind s
Ġwind m
Ġwindm ill
Ġwin ter
Ġwill ow
Ġwill ing
Ġwide ly
Ġwicked ly
Ġwi pe
Ġwhoo s
Ġwhoos hing
Ġwhoo p
Ġwho oped
Ġwho ever
Ġwhispe rers
Ġwhisp ers
Ġwhisk ery
Ġwhis ked
Ġwhim per
Ġwhim pe
Ġwhimpe red
Ġwhim p
Ġwhimp ering
Ġwhi pp
Ġwhipp y
Ġwhen ever
Ġwhee zed
Ġwhee ling
Ġwhe lk
Ġwhe el
Ġwhe ed
Ġwheed led
Ġwh om
Ġwh iz
Ġwhiz zing
Ġwh itt
Ġwhitt led
Ġwh ined
Ġwh ack
Ġwhack ed
Ġweird est
Ġweek ly
Ġweather man
Ġweak ly
Ġwe ight
Ġwe ighed
Ġwe ed
Ġweed s
Ġwe e
Ġwe aving
Ġwe ave
Ġwe ars
Ġwe ap
Ġweap on
Ġwater y
Ġwatch in
Ġwat ering
Ġwat ered
Ġwas ters
Ġwas ted
Ġwarm er
Ġward ro
Ġwardro bes
Ġwant in
Ġwandering s
Ġwand er
Ġwall ed
Ġwait in
Ġwa ves
Ġwa fting
Ġwa ff
Ġwaff le
Ġw rought
Ġw iz
Ġwiz ened
Ġw arty
Ġw aking
Ġw akes
Ġw ag
Ġwag g
Ġwagg led
Ġw ad
Ġwad d
Ġwadd ling
Ġvoic ing
Ġvisit ors
Ġvisit ing
Ġvis ion
Ġviolent ly
Ġvict ims
Ġvibr ating
Ġvibr ate
Ġvelv ety
Ġvelv et
Ġvan ishing
Ġvamp ire
Ġval ue
Ġvacation ing
Ġvac u
Ġvacu um
Ġv om
Ġvom it
Ġv olum
Ġvolum e
Ġv icious
Ġv ap
Ġvap or
Ġv ain
Ġuse less
Ġus ing
Ġus hered
Ġurg ent
Ġup t
Ġupt urn
Ġupturn ed
Ġup side
Ġup ro
Ġupro ar
Ġup ris
Ġupris ing
Ġup per
Ġunw el
Ġunwel come
Ġunus ually
Ġunus ed
Ġunt ouched
Ġunse en
Ġunse ated
Ġunfold ed
Ġunf air
Ġune x
Ġunex pe
Ġunexpe cted
Ġunder g
Ġunderg row
Ġundergrow th
Ġunc omf
Ġuncomf ort
Ġuncomfort able
Ġunbe lie
Ġunbelie v
Ġunbeliev able
Ġunbe ar
Ġunbear able
Ġuna fraid
Ġun stick
Ġunstick ing
Ġun set
Ġunset tled
Ġun ra
Ġunra veled
Ġun p
Ġunp op
Ġunpop ular
Ġun li
Ġunli ke
Ġun l
Ġunl uck
Ġunluck ily
Ġun fort
Ġunfort u
Ġunfortu nate
Ġun co
Ġunco iling
Ġun b
Ġunb roken
Ġun Dursley
ĠunDursley ish
Ġu g
Ġug ly
Ġu be
Ġty pes
Ġty pe
Ġtwo s
Ġtw inkled
Ġtw anging
Ġturn ips
Ġturn in
Ġturkey s
Ġtur ret
Ġturret s
Ġtunn els
Ġtunn el
Ġtugg ing
Ġtugg ed
Ġtuft s
Ġtry in
Ġtruth ful
Ġtrust ing
Ġtrouble s
Ġtroubles ome
Ġtrot ting
Ġtroll ey
Ġtriumph ant
Ġtriump hs
Ġtrick ling
Ġtri pping
Ġtri pe
Ġtri cked
Ġtri als
Ġtreat ing
Ġtreat ed
Ġtre m
Ġtrem ble
Ġtre ble
Ġtransp ort
Ġtransp arent
Ġtransf er
Ġtran ces
Ġtrain ed
Ġtra veled
Ġtra ins
Ġtra iled
Ġtra il
Ġtr uly
Ġtr udged
Ġtr ow
Ġtrow els
Ġtr oo
Ġtroo ps
Ġtr ack
Ġtown s
Ġtot tering
Ġtot tered
Ġtort ure
Ġtort o
Ġtorto ise
Ġtop most
Ġtom atoes
Ġtoile ts
Ġtoast ing
Ġto sh
Ġto il
Ġto ffee
Ġto e
Ġtit le
Ġtip toe
Ġtip to
Ġtipto ed
Ġting le
Ġting e
Ġtight s
Ġtight er
Ġtick ling
Ġtick led
Ġtick ets
Ġthunder ous
Ġthump ing
Ġthump in
Ġthrough out
Ġthroat s
Ġthr ong
Ġthrong ing
Ġthought s
Ġthinn est
Ġthinn er
Ġthick set
Ġthick ly
Ġthick er
Ġthank ful
Ġthan ked
Ġth us
Ġth umb
Ġthumb s
Ġth res
Ġthres h
Ġthresh old
Ġth re
Ġthre es
Ġth irst
Ġth ie
Ġthie ves
Ġtest ing
Ġterm s
Ġtent acles
Ġtend ri
Ġtendri ls
Ġten s
Ġten nis
Ġtell s
Ġtell in
Ġtear ful
Ġteach ing
Ġteac ups
Ġteac hes
Ġte h
Ġte ab
Ġteab ags
Ġtast y
Ġtart an
Ġtapest ry
Ġtapest ries
Ġtap ed
Ġtak es
Ġtail coat
Ġtailcoat s
Ġtack ling
Ġtack led
Ġta w
Ġtaw ny
Ġta unting
Ġta le
Ġtale nt
Ġt ure
Ġture ens
Ġt umbling
Ġt umbled
Ġt uck
Ġt ransfiguration
Ġt ransfig
Ġtransfig ured
Ġt rans
Ġtrans form
Ġt our
Ġtour ists
Ġt ips
Ġt inned
Ġt inkling
Ġt in
Ġt ie
Ġt id
Ġtid ier
Ġt arts
Ġt ar
Ġtar ant
Ġtarant ul
Ġtarantul a
Ġt ang
Ġtang les
Ġt ame
Ġt ags
Ġsy mb
Ġsymb ol
Ġsymbol s
Ġsy ll
Ġsyll able
Ġswish y
Ġsweet ums
Ġsweat ers
Ġswe ating
Ġswe aring
Ġswe ar
Ġsway ing
Ġswarm ing
Ġswarm in
Ġswall ow
Ġswa pping
Ġsw ord
Ġsw oll
Ġswoll en
Ġsw ished
Ġsw ig
Ġsw i
Ġswi pe
Ġsw elling
Ġsw el
Ġswel tering
Ġsw arth
Ġswarth y
Ġsw am
Ġsw ag
Ġswag gered
Ġsuspe nded
Ġsuspe nd
Ġsuspe ct
Ġsusp ic
Ġsuspic ion
Ġsusp ens
Ġsuspens ion
Ġsurround ed
Ġsurpris ing
Ġsur v
Ġsurv ive
Ġsur ged
Ġsupp ort
Ġsupport ing
Ġsupp ly
Ġsupp le
Ġsun shine
Ġsun r
Ġsunr ise
Ġsun b
Ġsunb urn
Ġsubst it
Ġsubstit ut
Ġsubstitut es
Ġsub tle
Ġsu sp
Ġsusp icious
Ġsu its
Ġsu cked
Ġstupid est
Ġstudy in
Ġstrugg le
Ġstrong er
Ġstro ke
Ġstri ped
Ġstri ctly
Ġstret ch
Ġstre n
Ġstren g
Ġstreng then
Ġstrengthen ed
Ġstre ak
Ġstray ing
Ġstraw berry
Ġstraw b
Ġstrawb er
Ġstrawber ries
Ġstraight ening
Ġstra ps
Ġstra pping
Ġstra nded
Ġstr ings
Ġstr ing
Ġstr ayed
Ġstr angled
Ġstorm y
Ġstop s
Ġstom ping
Ġsto ve
Ġsto pping
Ġsto pper
Ġsto oping
Ġstern ly
Ġsteep ly
Ġsteam roll
Ġsteamroll ered
Ġstead ily
Ġstead ied
Ġstat ues
Ġstar ved
Ġstar g
Ġstarg a
Ġstarga z
Ġstargaz ers
Ġstand ard
Ġstamp s
Ġstamp ing
Ġstam mering
Ġstalagm ites
Ġstalagm ite
Ġstalact ites
Ġstalact ite
Ġstag gered
Ġstag ger
Ġstagger in
Ġst unt
Ġst ung
Ġst ump
Ġst umbling
Ġst ub
Ġstub s
Ġst ores
Ġst ored
Ġst or
Ġstor med
Ġst oked
Ġst itch
Ġst it
Ġstit ches
Ġst inking
Ġst if
Ġstif ling
Ġst ew
Ġstew ed
Ġst en
Ġsten ch
Ġst eered
Ġst eeling
Ġst ee
Ġstee l
Ġst arry
Ġst alking
Ġst ained
Ġst ain
Ġst age
Ġst ad
Ġstad ium
Ġst acks
Ġst abb
Ġstabb ing
Ġst a
Ġsta le
Ġsquee ze
Ġsqueal ed
Ġsqu inted
Ġsqu id
Ġsqu eaky
Ġsqu aw
Ġsquaw ked
Ġsqu at
Ġsqu ashed
Ġspring y
Ġspread ing
Ġspr ay
Ġspot ting
Ġsport s
Ġspo ils
Ġsplut tering
Ġsple ens
Ġspl at
Ġsplat tered
Ġspl ashes
Ġspill ing
Ġspill ed
Ġspend ing
Ġspeed y
Ġspeed s
Ġspectac ul
Ġspectacul arly
Ġspect at
Ġspectat ors
Ġspeci ally
Ġspeak in
Ġspeak er
Ġspe lled
Ġspe ck
Ġspe c
Ġspec im
Ġspecim en
Ġspe ared
Ġspe ar
Ġsp ur
Ġspur t
Ġsp un
Ġsp raw
Ġspraw led
Ġsp okes
Ġspokes go
Ġspokesgo bl
Ġspokesgobl in
Ġsp oken
Ġsp ite
Ġsp iny
Ġsp inning
Ġsp ine
Ġsp in
Ġspin ach
Ġsp ider
Ġsp awn
Ġsp as
Ġspas m
Ġsp aces
Ġsomet ime
Ġsome f
Ġsomef ink
Ġsol ut
Ġsolut ions
Ġsoft est
Ġso bs
Ġso b
Ġsnuff ling
Ġsnowball s
Ġsnoo zing
Ġsnoo zed
Ġsnig ger
Ġsniff y
Ġsniff ling
Ġsniff ing
Ġsniff ily
Ġsnee zed
Ġsnee ze
Ġsneak ers
Ġsneak ed
Ġsne ering
Ġsn oring
Ġsn ores
Ġsn ored
Ġsn ive
Ġsnive led
Ġsn atching
Ġsn atch
Ġsn akes
Ġsmo other
Ġsmell y
Ġsmart ly
Ġsmart en
Ġsm uggle
Ġsm udged
Ġsm other
Ġsmother ing
Ġsm oking
Ġsm oked
Ġsm ir
Ġsmir king
Ġsm ashed
Ġsm ash
Ġsm arter
Ġslow ing
Ġslo ping
Ġslo pe
Ġslipp ery
Ġslipp ers
Ġslight est
Ġsleep s
Ġsleep less
Ġsleep iness
Ġsle nder
Ġsle ek
Ġsl ugs
Ġsl ouched
Ġsl otted
Ġsl its
Ġsl inking
Ġsl im
Ġslim y
Ġsl ice
Ġsl ay
Ġsl ain
Ġsl a
Ġsla pping
Ġsk ul
Ġskul king
Ġsk ipped
Ġsk ip
Ġsk inn
Ġskinn ier
Ġsk ies
Ġsk idd
Ġskidd ing
Ġsk i
Ġski pping
Ġsixt h
Ġsink s
Ġsing s
Ġsings ong
Ġsing led
Ġsince rely
Ġsin ister
Ġsim mering
Ġsim il
Ġsimil ar
Ġsign s
Ġsign at
Ġsignat ure
Ġsight ings
Ġshrill y
Ġshriek ing
Ġshr unk
Ġshr inking
Ġshr ink
Ġshow ers
Ġshove ling
Ġshout s
Ġshout in
Ġshould a
Ġshortc uts
Ġshortc ut
Ġsho ved
Ġshe ll
Ġshell ing
Ġshe et
Ġshe er
Ġshe ep
Ġshe ared
Ġshape less
Ġshall ows
Ġshad e
Ġsh red
Ġshred d
Ġshredd e
Ġshredde d
Ġsh ore
Ġsh or
Ġshor ter
Ġsh in
Ġshin in
Ġsh im
Ġshim mering
Ġsh ifty
Ġsh ield
Ġshield s
Ġsh i
Ġshi vering
Ġsh aves
Ġsh ar
Ġshar per
Ġsh ap
Ġshap es
Ġset tled
Ġset t
Ġsett ling
Ġserv ice
Ġser ved
Ġsepar ating
Ġsepar ately
Ġsepar ated
Ġsens ible
Ġsend ing
Ġself ish
Ġseem ing
Ġsee ping
Ġsecret s
Ġsecret ly
Ġsecret ary
Ġsecond ary
Ġsear ching
Ġse ve
Ġseve re
Ġse izing
Ġse es
Ġse ction
Ġse aw
Ġseaw eed
Ġse ating
Ġse as
Ġseas on
Ġse ared
Ġse al
Ġscruff s
Ġscri bbling
Ġscraw led
Ġscraw l
Ġscratch y
Ġscra ped
Ġscow ling
Ġscow l
Ġsc ur
Ġscur ried
Ġsc uff
Ġscuff les
Ġsc udd
Ġscudd ing
Ġsc roll
Ġsc rabb
Ġscrabb ling
Ġsc oring
Ġsc oot
Ġscoot ed
Ġsc o
Ġsco op
Ġsc iss
Ġsciss ors
Ġsc ience
Ġsc ented
Ġsc en
Ġscen e
Ġsc ars
Ġsc and
Ġscand al
Ġsc abby
Ġsav aging
Ġsav age
Ġsandw ich
Ġsaf ety
Ġsad ness
Ġsa ving
Ġsa uce
Ġsa pp
Ġsapp h
Ġsapph ires
Ġsa llow
Ġsa li
Ġsali va
Ġsa int
Ġsaint s
Ġsa c
Ġsac rific
Ġsacrific es
Ġs urn
Ġsurn ame
Ġs orrow
Ġsorrow ful
Ġs orcerer
Ġs oo
Ġsoo the
Ġs ons
Ġs om
Ġsom ers
Ġsomers ault
Ġs ly
Ġsly ly
Ġs izing
Ġs iz
Ġsiz z
Ġsizz ling
Ġs ipped
Ġs i
Ġsi lk
Ġsilk ily
Ġs her
Ġsher ry
Ġs hed
Ġs ets
Ġs ell
Ġs ard
Ġsard ine
Ġs an
Ġsan ity
Ġrumm aged
Ġrum or
Ġrub ies
Ġru ins
Ġru gs
Ġru bber
Ġru bbed
Ġrow bo
Ġrowbo at
Ġrock s
Ġrock eted
Ġrock et
Ġro pe
Ġro ars
Ġro aming
Ġrisk y
Ġris ks
Ġrid ing
Ġrid ers
Ġri vers
Ġri ppled
Ġri gged
Ġri g
Ġrig id
Ġri ff
Ġriff ra
Ġriffra ff
Ġri ck
Ġrick ety
Ġri ce
Ġri bb
Ġribb on
Ġret ra
Ġretra cing
Ġrest ricted
Ġrest less
Ġrest ing
Ġrest ed
Ġres pe
Ġrespe ct
Ġres ol
Ġresol ution
Ġres ist
Ġres ign
Ġres cu
Ġrescu ed
Ġreport s
Ġreport ed
Ġrepl ied
Ġrepl acing
Ġrepl aced
Ġrep air
Ġrep a
Ġrepa ired
Ġremind ing
Ġrem or
Ġremor se
Ġrem o
Ġremo ved
Ġrem ark
Ġremark ably
Ġrem ains
Ġrelax ed
Ġrel ation
Ġrel ati
Ġrelati ves
Ġrel ated
Ġrefere es
Ġrefere ed
Ġref used
Ġref us
Ġrefus ing
Ġredd ish
Ġred head
Ġredhead e
Ġredheade d
Ġrecord ed
Ġrecei ver
Ġrece ive
Ġrec iting
Ġrec it
Ġrecit ed
Ġreason ably
Ġread in
Ġre ward
Ġre ven
Ġreven ge
Ġre sp
Ġresp ons
Ġrespons ible
Ġre qu
Ġrequ ire
Ġre ply
Ġre li
Ġreli ving
Ġre e
Ġree led
Ġre bell
Ġrebell ions
Ġre ared
Ġrat tle
Ġras ping
Ġras p
Ġrasp berry
Ġrare ly
Ġrais ins
Ġrain bow
Ġrabbit in
Ġra w
Ġra v
Ġrav ine
Ġra pping
Ġra p
Ġrap idly
Ġra nd
Ġrand om
Ġra il
Ġrail way
Ġr unn
Ġrunn in
Ġr umbled
Ġr ue
Ġrue fully
Ġr out
Ġrout e
Ġr otted
Ġr ot
Ġr oo
Ġroo ting
Ġr inging
Ġr ing
Ġr anting
Ġr ammed
Ġr ags
Ġr agged
Ġr aged
Ġr ad
Ġrad ish
Ġqu iz
Ġqu ilt
Ġqu e
Ġque asy
Ġqu arters
Ġqu arter
Ġqu ailed
Ġqu a
Ġqua ver
Ġpuzzle ment
Ġpunish ments
Ġpuncture s
Ġpun ishing
Ġpun ched
Ġpun ch
Ġpump kins
Ġpuff ed
Ġpudd ings
Ġpudd in
Ġpub s
Ġpu pp
Ġpupp et
Ġproud est
Ġprotect ive
Ġprotect ing
Ġprom pt
Ġprompt ly
Ġprom is
Ġpromis in
Ġprogram s
Ġprodd ing
Ġprod uced
Ġprod u
Ġprodu ces
Ġpro ving
Ġpro ve
Ġpro v
Ġprov oked
Ġpro pped
Ġpro c
Ġproc essor
Ġpriv ately
Ġpri ckle
Ġpri ce
Ġpress ure
Ġpresent ing
Ġpre v
Ġprev ent
Ġpre f
Ġpref er
Ġpre cise
Ġprecise ly
Ġpractic al
Ġpr une
Ġpr ince
Ġpr ay
Ġpray ing
Ġpowd ers
Ġpou red
Ġpou ch
Ġpot ions
Ġpot at
Ġpotat o
Ġpost man
Ġpost ers
Ġpost er
Ġposit ively
Ġposit ions
Ġpor k
Ġpor c
Ġporc up
Ġporcup ine
Ġpop ular
Ġpop kin
Ġpol tergeist
Ġpol iter
Ġpol itely
Ġpois ons
Ġpoint y
Ġpocket ed
Ġpo les
Ġple aded
Ġplay s
Ġplay in
Ġplay fully
Ġplat ters
Ġplant s
Ġplan n
Ġplann ed
Ġpl owed
Ġpl ot
Ġplot ting
Ġpl aced
Ġpin p
Ġpinp ri
Ġpinpri cks
Ġpin ched
Ġpig ta
Ġpigta ils
Ġpier ced
Ġpicture s
Ġpick led
Ġpi ped
Ġphoenix es
Ġph one
Ġph on
Ġphon ing
Ġph i
Ġphi als
Ġperson ally
Ġperson al
Ġper form
Ġper cent
Ġpeppermint s
Ġpeople s
Ġpen ce
Ġpelt s
Ġpelt ed
Ġpeace ful
Ġpe wter
Ġpe p
Ġpe cked
Ġpe bbles
Ġpe arly
Ġpe a
Ġpay in
Ġpatch work
Ġpat tern
Ġpat ro
Ġpatro lled
Ġpass ersby
Ġpass ages
Ġpar r
Ġparr ot
Ġpar ked
Ġpar aded
Ġpan icked
Ġpan els
Ġpal om
Ġpalom in
Ġpalomin o
Ġpal er
Ġpal ace
Ġpain ting
Ġpain ted
Ġpain t
Ġpain s
Ġpa ving
Ġpa is
Ġpais ley
Ġp y
Ġpy th
Ġpyth ons
Ġp ursed
Ġp row
Ġprow ling
Ġp our
Ġpour ing
Ġp ounced
Ġp oo
Ġpoo rer
Ġp om
Ġpom p
Ġpomp ously
Ġp ity
Ġp inning
Ġp ine
Ġpine app
Ġpineapp le
Ġp ies
Ġp he
Ġphe asant
Ġpheasant s
Ġp ell
Ġpell ets
Ġp eeling
Ġp aws
Ġp awn
Ġp ave
Ġpave ment
Ġp ati
Ġpati ent
Ġp atched
Ġp arts
Ġp arks
Ġp anting
Ġp alm
Ġpalm s
Ġp ages
Ġp acing
Ġown ers
Ġow e
Ġovert ook
Ġovert aking
Ġoverhe aring
Ġoverhe ard
Ġover sh
Ġoversh ad
Ġovershad owed
Ġover grown
Ġoutst ret
Ġoutstret ched
Ġout s
Ġouts k
Ġoutsk irt
Ġoutskirt s
Ġout r
Ġoutr age
Ġout lin
Ġoutlin es
Ġout l
Ġoutl awed
Ġought a
Ġother w
Ġotherw ise
Ġor nate
Ġor g
Ġorg an
Ġorgan ized
Ġopen ing
Ġop era
Ġoff hand
Ġocc ur
Ġoccur red
Ġocc asions
Ġobject s
Ġob ser
Ġobser ved
Ġo men
Ġo iled
Ġo af
Ġnumb ly
Ġnotic es
Ġnot ed
Ġnose ble
Ġnoseble ed
Ġnos y
Ġnos ie
Ġnon st
Ġnonst op
Ġnon m
Ġnonm agic
Ġnoise lessly
Ġnight s
Ġnight fall
Ġnewsp apers
Ġnews c
Ġnewsc aster
Ġnet t
Ġnett les
Ġneighb or
Ġneed in
Ġne c
Ġnec ess
Ġnecess ary
Ġne ars
Ġnears ighted
Ġnatur ally
Ġnast ier
Ġnarrow ly
Ġn ursed
Ġn urse
Ġn udged
Ġn int
Ġnint h
Ġn aughty
Ġn ation
Ġn ailed
Ġn ag
Ġmyster iously
Ġmyst if
Ġmystif ied
Ġmyst ery
Ġmut e
Ġmute ly
Ġmust y
Ġmust ached
Ġmus cle
Ġmus c
Ġmusc ular
Ġmu le
Ġmu gs
Ġmout hed
Ġmount ing
Ġmotorcycle s
Ġmotion less
Ġmost ly
Ġmonst er
Ġmon k
Ġmom my
Ġmo v
Ġmov ies
Ġmo ssy
Ġmo ans
Ġmo aning
Ġmo an
Ġmist le
Ġmistle toe
Ġmist akes
Ġmist ak
Ġmistak en
Ġmiss es
Ġmirror s
Ġmind ed
Ġmin us
Ġminus cu
Ġminuscu le
Ġmilk man
Ġmight n
Ġmight a
Ġmid st
Ġmet ers
Ġmess in
Ġmess age
Ġmention in
Ġmem or
Ġmemor ize
Ġmedd ling
Ġmedd lin
Ġmedd le
Ġmeant ime
Ġmean in
Ġme rely
Ġme nded
Ġme mber
Ġme llow
Ġme als
Ġmat t
Ġmatt ress
Ġmarble s
Ġmar ked
Ġmar ch
Ġman ner
Ġman i
Ġmani ac
Ġmaniac s
Ġman aging
Ġm ur
Ġmur m
Ġmurm ur
Ġm umbling
Ġm ul
Ġmul t
Ġmult ile
Ġmultile vel
Ġm uff
Ġmuff ins
Ġm uddy
Ġm ud
Ġm ounds
Ġm oth
Ġm odern
Ġm odel
Ġm ing
Ġming led
Ġm iff
Ġmiff ed
Ġm ering
Ġmering ue
Ġm au
Ġmau ve
Ġm ath
Ġm ast
Ġmast ered
Ġm ars
Ġmars h
Ġmarsh m
Ġmarshm all
Ġmarshmall ows
Ġm aps
Ġm ant
Ġmant el
Ġmantel p
Ġmantelp ie
Ġmantelpie ce
Ġm angled
Ġm aker
Ġm ak
Ġmak in
Ġm ainly
Ġm a
Ġma ze
Ġlur ched
Ġlur ch
Ġlump s
Ġloyal t
Ġloyalt ies
Ġlove ly
Ġloud er
Ġloop y
Ġloo se
Ġloo med
Ġlonging ly
Ġlong est
Ġlong ed
Ġload ed
Ġlo ver
Ġlo oming
Ġlo at
Ġloat hed
Ġliquid s
Ġling ering
Ġling ered
Ġlin en
Ġlim ping
Ġlim p
Ġlike ly
Ġlight ing
Ġlight est
Ġlid s
Ġlibr ar
Ġlibrar ian
Ġli z
Ġliz ards
Ġli v
Ġliv id
Ġli k
Ġlik es
Ġli fting
Ġli ed
Ġlet s
Ġless ened
Ġlegend ary
Ġled gers
Ġleap ing
Ġlead er
Ġle nd
Ġle gged
Ġle ering
Ġle cture
Ġle ct
Ġlect ur
Ġlectur in
Ġle an
Ġle aking
Ġle aked
Ġle ag
Ġleag ue
Ġlawn s
Ġlar gest
Ġlar ger
Ġlan tern
Ġlantern s
Ġlan es
Ġlamp s
Ġla z
Ġlaz ily
Ġl unged
Ġl umb
Ġlumb ered
Ġl ull
Ġlull ab
Ġlullab y
Ġl ugg
Ġlugg age
Ġl otta
Ġl ops
Ġlops ided
Ġl one
Ġlone ly
Ġl oc
Ġloc al
Ġl ining
Ġl aws
Ġl aw
Ġl as
Ġl aps
Ġl ang
Ġlang u
Ġlangu ages
Ġl amb
Ġl ace
Ġknuck le
Ġknow led
Ġknowled ge
Ġknight s
Ġknickerbock er
Ġkn ot
Ġkn itting
Ġkn itted
Ġkiss ing
Ġkind s
Ġkind ling
Ġkind a
Ġkill s
Ġkill ers
Ġkid s
Ġkid ney
Ġkick ing
Ġkeep er
Ġk ip
Ġjump y
Ġjo ining
Ġjinx ing
Ġjew els
Ġjer king
Ġjealous y
Ġj udging
Ġj udge
Ġj u
Ġju icy
Ġj ot
Ġj okes
Ġj ig
Ġj e
Ġje ans
Ġj ave
Ġjave lin
Ġint ently
Ġinsul tin
Ġinsul ted
Ġinstant ly
Ġinst rum
Ġinstrum ents
Ġinst ru
Ġinstru ctions
Ġinst in
Ġinstin ct
Ġinsist ing
Ġins pe
Ġinspe ctor
Ġins c
Ġinsc ri
Ġinscri pt
Ġinscript ion
Ġink y
Ġinform ation
Ġinf ern
Ġinfern al
Ġind oor
Ġindoor s
Ġincred ibly
Ġinc re
Ġincre ases
Ġin n
Ġinn oc
Ġinnoc ent
Ġin jured
Ġin cl
Ġincl ud
Ġinclud ing
Ġin ched
Ġin ch
Ġimprove ment
Ġimpress ively
Ġimpati ent
Ġimp re
Ġimpre cise
Ġim mort
Ġimmort al
Ġim age
Ġign oring
Ġid ly
Ġic ing
Ġic ic
Ġicic les
Ġhurt s
Ġhurt ling
Ġhurried ly
Ġhum or
Ġhow led
Ġhow l
Ġhour glasses
Ġhot ly
Ġhorn y
Ġhorn ed
Ġhor s
Ġhors es
Ġhope fully
Ġhope ful
Ġhoot ing
Ġhood l
Ġhoodl ums
Ġhoo ked
Ġhome m
Ġhomem ade
Ġhold s
Ġho les
Ġho isted
Ġho cus
Ġho bby
Ġho bbled
Ġhis t
Ġhist ory
Ġhing es
Ġhing e
Ġhigh way
Ġhid es
Ġher bs
Ġhel ple
Ġhelple ss
Ġhelpless ly
Ġhel m
Ġhelm eted
Ġhel ic
Ġhelic op
Ġhelicop ters
Ġheartstr ings
Ġheartstr ing
Ġhead mistress
Ġhead light
Ġhead less
Ġhead ing
Ġhead f
Ġheadf irst
Ġhe m
Ġhe ll
Ġhe els
Ġhe ed
Ġhe d
Ġhed ges
Ġhe aving
Ġhe ave
Ġhe aring
Ġhe al
Ġheal th
Ġhat red
Ġhat ing
Ġhat ches
Ġhat ched
Ġhapp iness
Ġhapp iest
Ġhand y
Ġhan ger
Ġham mered
Ġham m
Ġhamm er
Ġhalf he
Ġhalfhe art
Ġhalfheart ed
Ġhalfhearted ly
Ġhairc uts
Ġha v
Ġhav in
Ġha g
Ġha a
Ġhaa a
Ġh y
Ġhy g
Ġhyg ien
Ġhygien ic
Ġh ushing
Ġh ush
Ġh us
Ġhus b
Ġhusb and
Ġh unt
Ġh umming
Ġh op
Ġh onest
Ġh itch
Ġh ired
Ġh int
Ġh ind
Ġh ill
Ġhill s
Ġh arp
Ġh arn
Ġharn ess
Ġguess ing
Ġguard s
Ġguard ed
Ġgrow ling
Ġgrow ing
Ġgro ped
Ġgro an
Ġgri ps
Ġgri ff
Ġgriff in
Ġgri ef
Ġgreenh ouses
Ġgreenh ouse
Ġgreen er
Ġgreat ness
Ġgre eted
Ġgre et
Ġgreet ing
Ġgre asily
Ġgray ish
Ġgrass y
Ġgras ping
Ġgras ped
Ġgras p
Ġgrandfather s
Ġgran ite
Ġgrad ually
Ġgrad es
Ġgra pp
Ġgrapp ling
Ġgr unting
Ġgr umbled
Ġgr udging
Ġgrudging ly
Ġgr itted
Ġgr inding
Ġgoble ts
Ġgo s
Ġgos s
Ġgoss i
Ġgossi ped
Ġgo ose
Ġgo gg
Ġgogg le
Ġgo at
Ġgloom ily
Ġglo bes
Ġglo ating
Ġgloating ly
Ġglit ter
Ġglitter y
Ġglim p
Ġglimp se
Ġglim mered
Ġglee fully
Ġgle amed
Ġgl um
Ġglum ly
Ġgl ue
Ġgl isten
Ġglisten ing
Ġgl ider
Ġgi bber
Ġghost ie
Ġgh ou
Ġghou lie
Ġget ups
Ġgentle man
Ġgaw king
Ġgaw ked
Ġgard ens
Ġgar g
Ġgarg oy
Ġgargoy les
Ġgar age
Ġgang ling
Ġgamek eeping
Ġgall oped
Ġga zed
Ġga ze
Ġga unt
Ġga les
Ġg y
Ġgy m
Ġg un
Ġg own
Ġg or
Ġgor ill
Ġgorill a
Ġg ing
Ġging er
Ġginger ly
Ġg igg
Ġgigg led
Ġg er
Ġger o
Ġgero ff
Ġg aps
Ġg aped
Ġg amb
Ġgamb led
Ġg al
Ġgal os
Ġgalos hes
Ġg ains
Ġg ain
Ġfur ther
Ġfur or
Ġfur ling
Ġfun er
Ġfuner al
Ġfum ing
Ġfum es
Ġfull y
Ġfull er
Ġfrown ed
Ġfro ze
Ġfro st
Ġfrighten in
Ġfriends hip
Ġfri es
Ġfreed om
Ġfree ze
Ġfre ak
Ġfr u
Ġfru it
Ġfruit c
Ġfruitc ake
Ġfr ayed
Ġfour teen
Ġfour s
Ġfou ls
Ġfou led
Ġforget tin
Ġforget s
Ġforg ot
Ġforever more
Ġforest s
Ġforehead s
Ġfore to
Ġforeto ld
Ġfore c
Ġforec ast
Ġfor cing
Ġfoot ball
Ġfoo t
Ġfoot fall
Ġfootfall s
Ġfond ly
Ġfold s
Ġfly in
Ġflow ered
Ġflood ing
Ġflo p
Ġflo cking
Ġflo ck
Ġfling ing
Ġflick ing
Ġfle x
Ġflex ible
Ġflatten ed
Ġflat tering
Ġflat ter
Ġflash y
Ġfl uid
Ġfl uffy
Ġfl uff
Ġfl owing
Ġfl itting
Ġfl in
Ġflin ched
Ġfl imsy
Ġfl ies
Ġfl ashing
Ġfl ap
Ġfl anks
Ġfl an
Ġflan ked
Ġfl ame
Ġfl ailed
Ġfl agged
Ġfl a
Ġfla iling
Ġfixed ly
Ġfirst hand
Ġfirecrack ers
Ġfirecrack er
Ġfire work
Ġfire wor
Ġfirewor ks
Ġfire light
Ġfing ert
Ġfingert ips
Ġfin ishing
Ġfin est
Ġfill ing
Ġfigure s
Ġfif teen
Ġfer oc
Ġferoc iously
Ġfee ls
Ġfe ver
Ġfever ishly
Ġfather s
Ġfat ten
Ġfatten in
Ġfast ening
Ġfastening s
Ġfast ened
Ġfast en
Ġfascin ating
Ġfascin ated
Ġfan atic
Ġfamil i
Ġfamili ar
Ġfaith fully
Ġfaith ful
Ġfad e
Ġfa b
Ġfab ul
Ġfabul ous
Ġf us
Ġfus sing
Ġf ungi
Ġf umbling
Ġf u
Ġfu rn
Ġfurn it
Ġfurnit ure
Ġf ried
Ġf ret
Ġf ol
Ġfol ks
Ġf o
Ġfo gh
Ġfogh orn
Ġf ixing
Ġf ix
Ġf ish
Ġfish y
Ġf il
Ġfil th
Ġfilth y
Ġf idd
Ġfidd ling
Ġf id
Ġfid get
Ġfidget ed
Ġf etch
Ġf en
Ġfen ces
Ġf ate
Ġfate ful
Ġf art
Ġfart her
Ġf antastic
Ġf al
Ġfal tered
Ġeye glasses
Ġexplo s
Ġexplos ion
Ġexplo ding
Ġexplo d
Ġexplod e
Ġexpect s
Ġexch anged
Ġexch ange
Ġexasper ation
Ġexasper ated
Ġexam ining
Ġex per
Ġexper ience
Ġex its
Ġex isten
Ġexisten ce
Ġex isted
Ġex ha
Ġexha usted
Ġex act
Ġevening s
Ġentran ced
Ġeng u
Ġengu lf
Ġengulf ed
Ġeng ra
Ġengra ved
Ġene my
Ġend less
Ġend ing
Ġend ed
Ġenclo sed
Ġenclo se
Ġenc our
Ġencour aging
Ġen viously
Ġen s
Ġens n
Ġensn aring
Ġen r
Ġenr aged
Ġempt ier
Ġemer ged
Ġemb ers
Ġemb ed
Ġembed ded
Ġele v
Ġelev enth
Ġele ph
Ġeleph ant
Ġele ment
Ġel astic
Ġeh ru
Ġeff ect
Ġed ging
Ġed ges
Ġech oes
Ġeas iest
Ġears pl
Ġearspl itting
Ġearn ed
Ġe er
Ġeer ie
Ġe els
Ġe cl
Ġecl airs
Ġe b
Ġeb ony
Ġe arm
Ġearm uff
Ġearmuff s
Ġdw ar
Ġdwar f
Ġdust er
Ġdunderhead s
Ġdump y
Ġdue ls
Ġdro op
Ġdro ol
Ġdrool ing
Ġdrive way
Ġdri pping
Ġdri p
Ġdri fting
Ġdri bbling
Ġdream ily
Ġdread locks
Ġdraw l
Ġdraw back
Ġdrag ging
Ġdra in
Ġdr umming
Ġdr um
Ġdrum med
Ġdr uid
Ġdruid ess
Ġdr oo
Ġdroo led
Ġdr oned
Ġdr one
Ġdr at
Ġdrat ted
Ġdr am
Ġdram atic
Ġdramatic ally
Ġdown p
Ġdownp our
Ġdown fall
Ġdough nuts
Ġdough nut
Ġdoub ted
Ġdoub led
Ġdoor ways
Ġdoor post
Ġdoor bell
Ġdon key
Ġdonkey s
Ġdod ges
Ġdod ge
Ġdo om
Ġdo l
Ġdol ph
Ġdolph ins
Ġdo in
Ġdo gs
Ġdist ra
Ġdistra cted
Ġdist in
Ġdistin ctly
Ġdisli ked
Ġdisli ke
Ġdisgust ed
Ġdiscuss ion
Ġdiscus sing
Ġdiscover ies
Ġdisapproving ly
Ġdisappo inted
Ġdisappo int
Ġdisappoint ment
Ġdisap pear
Ġdisap pe
Ġdisappe aring
Ġdis pleased
Ġdis hes
Ġdis covered
Ġdis ag
Ġdisag ree
Ġdirect ing
Ġdire ctly
Ġdire cted
Ġdinn ert
Ġdinnert ime
Ġdifferent ly
Ġdial ing
Ġdi ves
Ġdi vers
Ġdivers ion
Ġdi v
Ġdiv iding
Ġdi agon
Ġdiagon ally
Ġdet est
Ġdest iny
Ġdest ined
Ġdesk top
Ġdeser ves
Ġdeser ved
Ġdes ert
Ġdesert ed
Ġdes c
Ġdesc rib
Ġdescrib ing
Ġdep ressed
Ġdep ress
Ġdepress ing
Ġdemand s
Ġdeliver in
Ġdelight s
Ġdelic ately
Ġdelic ate
Ġdel ivered
Ġdefe nd
Ġdefe ated
Ġdef ro
Ġdefro st
Ġdefrost ing
Ġdef ense
Ġdefense less
Ġdeep est
Ġdec l
Ġdecl ared
Ġdec ent
Ġdeal er
Ġde pe
Ġdepe nded
Ġde cked
Ġde b
Ġdeb t
Ġde ars
Ġde arly
Ġde are
Ġdeare st
Ġdawn ed
Ġdark ened
Ġdanger ously
Ġdamp en
Ġdam n
Ġdam aged
Ġda zed
Ġda is
Ġdais ies
Ġda iry
Ġd ye
Ġdye ing
Ġd ut
Ġdut ies
Ġd us
Ġdus k
Ġd umped
Ġd umb
Ġdumb f
Ġdumbf ound
Ġdumbfound ed
Ġd ully
Ġd uff
Ġduff ers
Ġd ud
Ġd uck
Ġduck s
Ġd ress
Ġd re
Ġdre nched
Ġd raft
Ġdraft y
Ġd otted
Ġd or
Ġdor mi
Ġdormi ce
Ġd ish
Ġd irt
Ġd ining
Ġd in
Ġd im
Ġdim p
Ġdimp led
Ġd ent
Ġdent ists
Ġd en
Ġden ying
Ġd aughter
Ġd app
Ġdapp led
Ġd abbed
Ġcut ting
Ġcurt ain
Ġcurs es
Ġcur ry
Ġcur rent
Ġcurrent ly
Ġcur ly
Ġcur ling
Ġcur l
Ġcup s
Ġcry in
Ġcry b
Ġcryb ab
Ġcrybab ies
Ġcrump ets
Ġcrou ched
Ġcross ly
Ġcris ply
Ġcris is
Ġcreep ers
Ġcree ps
Ġcree ping
Ġcreat e
Ġcre aked
Ġcre ak
Ġcrack er
Ġcr ut
Ġcrut ches
Ġcr ushed
Ġcr ush
Ġcr umbling
Ġcr ue
Ġcrue l
Ġcr own
Ġcr it
Ġcrit ic
Ġcritic izing
Ġcr inkled
Ġcr ing
Ġcring ed
Ġcr ashes
Ġcr an
Ġcran berry
Ġcow s
Ġcow ering
Ġcow ard
Ġcourage ous
Ġcoun c
Ġcounc il
Ġcould a
Ġcorn in
Ġcorn fl
Ġcornfl akes
Ġcorn ers
Ġcorn ered
Ġcorn ed
Ġcor re
Ġcorre ct
Ġcorrect ing
Ġcor k
Ġconv ince
Ġcontin u
Ġcontinu ed
Ġcont ains
Ġcont ain
Ġcontain ing
Ġconf is
Ġconfis c
Ġconfisc ated
Ġconf ess
Ġconfess ed
Ġcondu ctor
Ġcondu cted
Ġconcentr ating
Ġconc ret
Ġconcret e
Ġcon st
Ġconst ant
Ġconstant ly
Ġcon jured
Ġcomple x
Ġcompart ments
Ġcomment ating
Ġcomment ary
Ġcomm itting
Ġcomm it
Ġcomm anded
Ġcom b
Ġcomb ination
Ġcoll e
Ġcolle cted
Ġcoll ar
Ġcoll apsible
Ġcol ored
Ġco ils
Ġco ffee
Ġco br
Ġcobr as
Ġco bbled
Ġco ast
Ġco als
Ġcloak ed
Ġclo bb
Ġclobb ered
Ġclick ing
Ġclever ness
Ġcl ung
Ġcl out
Ġclout ed
Ġcl oth
Ġcl inking
Ġcl inging
Ġcl awed
Ġcl aw
Ġcl attering
Ġcl anging
Ġcl anged
Ġcirc led
Ġcir cus
Ġcir cle
Ġcircle s
Ġchuck ling
Ġchuck le
Ġchuck ed
Ġcho pped
Ġchip ol
Ġchipol at
Ġchipolat as
Ġchim ed
Ġchild ishly
Ġchild h
Ġchildh ood
Ġchick ened
Ġchew ing
Ġchew ed
Ġchest nut
Ġchess board
Ġcheek s
Ġcheck up
Ġcheck m
Ġcheckm ate
Ġche ery
Ġche ating
Ġche ap
Ġchas in
Ġchar ging
Ġchar ged
Ġch ose
Ġch or
Ġchor used
Ġch ips
Ġch illy
Ġch ill
Ġchill ed
Ġch i
Ġchi v
Ġchiv al
Ġchival ry
Ġch ase
Ġch app
Ġchapp ie
Ġch ang
Ġchang in
Ġch ances
Ġch ains
Ġch ained
Ġcere mony
Ġcere al
Ġcent uri
Ġcenturi es
Ġcelebr ity
Ġcelebr ations
Ġcelebr ated
Ġce ased
Ġcaught y
Ġcat ches
Ġcat c
Ġcatc all
Ġcatcall ing
Ġcas es
Ġcart oon
Ġcarp ets
Ġcarp et
Ġcare lessly
Ġcare f
Ġcaref ull
Ġcar ri
Ġcarri ages
Ġcar r
Ġcarr ots
Ġcar ouse
Ġcarouse l
Ġcannon ball
Ġcand le
Ġcandle light
Ġcand ies
Ġcan s
Ġcan e
Ġcan ce
Ġcance led
Ġcan ary
Ġcalm ing
Ġcack le
Ġcabb ages
Ġca pt
Ġcapt ure
Ġca f
Ġcaf ru
Ġc ust
Ġcust om
Ġcustom er
Ġc ush
Ġcush ion
Ġc ured
Ġc ure
Ġc unning
Ġc red
Ġcred it
Ġc ough
Ġc ore
Ġc ook
Ġcook ed
Ġc ock
Ġc ity
Ġc ine
Ġcine mas
Ġc ig
Ġcig are
Ġcigare t
Ġcigaret t
Ġcigarett e
Ġc ert
Ġcert ain
Ġc en
Ġcen ter
Ġc arts
Ġc ap
Ġc ant
Ġcant ered
Ġbuy in
Ġbut tered
Ġbut ter
Ġburn s
Ġburn ished
Ġbur nt
Ġbur ly
Ġbund les
Ġbund led
Ġbun ches
Ġbull ied
Ġbull ets
Ġbull et
Ġbuild ings
Ġbuck led
Ġbuck ing
Ġbu zz
Ġbu z
Ġbuz zing
Ġbu rying
Ġbu ilt
Ġbrooms hed
Ġbroad ly
Ġbro oding
Ġbrilliant ly
Ġbri ef
Ġbrief c
Ġbriefc ase
Ġbri cks
Ġbree zy
Ġbreath s
Ġbreak s
Ġbre w
Ġbre ed
Ġbreed ing
Ġbre ad
Ġbrand ished
Ġbran ch
Ġbra vo
Ġbra ced
Ġbr ushing
Ġbr ushed
Ġbr im
Ġbowl ers
Ġbow ling
Ġbound s
Ġbother ing
Ġbored om
Ġboog ers
Ġboog er
Ġbonn ets
Ġbonn et
Ġbon us
Ġbody g
Ġbodyg u
Ġbodygu ards
Ġboat ers
Ġboard ing
Ġbo ot
Ġbo om
Ġboom ed
Ġbo il
Ġbo ast
Ġboast ful
Ġblue bell
Ġblood iness
Ġblood c
Ġbloodc urd
Ġbloodcurd ling
Ġblo s
Ġblos s
Ġbloss oming
Ġblo cking
Ġblo b
Ġblank ly
Ġblank et
Ġblack ness
Ġblack board
Ġbl under
Ġblunder ing
Ġbl owing
Ġbl oke
Ġbl iss
Ġbliss fully
Ġbl ind
Ġblind ed
Ġbl imey
Ġbit es
Ġbirthday s
Ġbird c
Ġbirdc age
Ġbill s
Ġbid in
Ġbew are
Ġbet r
Ġbetr ay
Ġbend y
Ġbend ing
Ġbelong s
Ġbelong ing
Ġbel ting
Ġbeing s
Ġbeh ave
Ġbeh av
Ġbehav i
Ġbehavi or
Ġbeg un
Ġbeg inning
Ġbeet les
Ġbeef y
Ġbedroom s
Ġbed time
Ġbed sp
Ġbedsp read
Ġbec om
Ġbecom es
Ġbeaut y
Ġbeast s
Ġbeast ie
Ġbeard ed
Ġbeak s
Ġbea vers
Ġbeavers kin
Ġbe y
Ġbey ond
Ġbe lt
Ġbe in
Ġbe head
Ġbe gging
Ġbe e
Ġbee ch
Ġbe ck
Ġbeck oned
Ġbe aring
Ġbe ach
Ġbat ty
Ġbat s
Ġbask ets
Ġbasic s
Ġbas king
Ġbar rels
Ġbar red
Ġbar b
Ġbarb ers
Ġband ages
Ġband aged
Ġban an
Ġbanan as
Ġball oons
Ġbad ger
Ġback p
Ġbackp ack
Ġback ground
Ġb ustling
Ġb ust
Ġbust led
Ġb umped
Ġb ully
Ġb uff
Ġbuff al
Ġbuffal o
Ġb ridge
Ġb red
Ġb ounced
Ġb ould
Ġbould er
Ġb orn
Ġb oo
Ġboo ming
Ġb om
Ġbom bs
Ġb od
Ġbod ies
Ġb icy
Ġbicy cle
Ġb i
Ġbi ased
Ġb ers
Ġbers er
Ġberser k
Ġb aw
Ġbaw ling
Ġb ated
Ġb ase
Ġbase ball
Ġb ars
Ġb arn
Ġb arks
Ġb ark
Ġb anks
Ġb ang
Ġb al
Ġbal ancing
Ġb aking
Ġb aker
Ġb ak
Ġbak ery
Ġawkward ly
Ġaward ing
Ġawa its
Ġawa iting
Ġaw ful
Ġaw e
Ġattract ive
Ġattack ed
Ġat op
Ġastonishing ly
Ġaston ish
Ġastonish ment
Ġast ride
Ġast ound
Ġastound ing
Ġass ured
Ġass ist
Ġassist ant
Ġas hen
Ġarriv als
Ġarriv al
Ġarri ving
Ġarm p
Ġarmp it
Ġargum ents
Ġargum ent
Ġargu ed
Ġar t
Ġar rows
Ġar row
Ġar range
Ġarrange ments
Ġar ching
Ġapp rove
Ġapp ro
Ġappro ached
Ġapp le
Ġap o
Ġapo lo
Ġapolo g
Ġapolog ized
Ġany time
Ġanx i
Ġanxi ety
Ġansw ers
Ġansw ering
Ġannoy ed
Ġang rier
Ġan uthinq
Ġan t
Ġant i
Ġan ge
Ġange l
Ġamb ling
Ġam ount
Ġam id
Ġalong side
Ġalche mist
Ġalarm ing
Ġal tern
Ġaltern at
Ġalternat ive
Ġal ien
Ġal ib
Ġalib is
Ġair ily
Ġaftern oons
Ġaff ect
Ġaff airs
Ġadv ised
Ġadv ancing
Ġadv anced
Ġadmir al
Ġadmir able
Ġadmi rers
Ġadmi red
Ġacc ount
Ġacc oun
Ġaccoun t
Ġaccount ant
Ġac on
Ġacon ite
Ġac id
Ġab ys
Ġabys m
Ġabysm al
Ġab s
Ġabs urd
Ġab o
Ġabo ard
Ġab n
Ġabn orm
Ġabnorm al
Ġab ack
Ġa vo
Ġavo id
Ġa ud
Ġaud ience
Ġa mi
Ġami go
Ġa mber
Ġa che
Ġa ch
Ġach ie
Ġachie ve
ĠYes terday
ĠYOU R
ĠY v
ĠYv on
ĠYvon ne
ĠWor st
ĠWor ld
ĠWood craft
ĠWizard ing
ĠWit ches
ĠWing ed
ĠWhere ver
ĠWhen ever
ĠWe rew
ĠWerew olf
ĠWe re
ĠWe ls
ĠWels h
ĠWe ird
ĠWand ering
ĠW rigg
ĠWrigg ling
ĠW r
ĠWr itten
ĠW ould
ĠW itch
ĠWitch craft
ĠW ish
ĠW ight
ĠW hing
ĠWhing ing
ĠW hee
ĠWhee ling
ĠW arty
ĠW ar
ĠWar locks
ĠW anted
ĠW alking
ĠW aff
ĠWaff ling
ĠW ONT
ĠW ITCH
ĠW A
ĠWA NT
ĠV o
ĠVo Z
ĠV ir
ĠVir id
ĠVirid ian
ĠV ind
ĠVind ict
ĠVindict us
ĠV iew
ĠView ers
ĠV an
ĠVan ished
ĠUn icorn
ĠU ric
ĠTw ice
ĠTw enty
ĠTw eak
ĠTr ue
ĠTr imble
ĠThousand s
ĠThe ory
ĠThe m
ĠTh ought
ĠTh irty
ĠTh inking
ĠTh ink
ĠTh anks
ĠTh ank
ĠThank ss
ĠThankss s
ĠTR IC
ĠTRIC K
ĠTRICK S
ĠTR E
ĠTRE E
ĠTH I
ĠTHI S
ĠTH E
ĠT ut
ĠT uli
ĠTuli ps
ĠT uft
ĠTuft y
ĠT rying
ĠT rou
ĠTrou ble
ĠT ried
ĠT ot
ĠTot alus
ĠTotalus l
ĠT ongue
ĠT om
ĠT od
ĠTod ay
ĠT ime
ĠT i
ĠTi bb
ĠTibb ies
ĠT hings
ĠT ere
ĠTere nce
ĠT ed
ĠT awn
ĠTawn y
ĠT aped
ĠT O
ĠT HAT
ĠT E
ĠTE A
ĠTEA CH
ĠSw itching
ĠSw itch
ĠSure ly
ĠSunday s
ĠStud ying
ĠSt ri
ĠStri ct
ĠSt ones
ĠSt ick
ĠSt e
ĠSte pping
ĠSt ay
ĠSt and
ĠStand ard
ĠSt airs
ĠSprout s
ĠSpr ay
ĠSpe c
ĠSpec ies
ĠSp ore
ĠSort ed
ĠSome how
ĠSm oke
ĠSm arm
ĠSmarm y
ĠSm all
ĠSmall est
ĠSir ius
ĠSil very
ĠSil ver
ĠSh ame
ĠSever al
ĠSet ting
ĠSe a
ĠSc ur
ĠScur rying
ĠSc ree
ĠScree ch
ĠSc ot
ĠScot ch
ĠSc oo
ĠScoo ping
ĠSc ars
ĠSc ared
ĠSc am
ĠScam and
ĠScamand er
ĠS ur
ĠSur rey
ĠS up
ĠSup reme
ĠS un
ĠSun shine
ĠS uddenly
ĠS u
ĠSu ppose
ĠS ore
ĠS ometimes
ĠS mi
ĠSmi ling
ĠS le
ĠSle ek
ĠS iz
ĠSiz es
ĠS ixt
ĠSixt y
ĠS itting
ĠS ince
ĠS chool
ĠS aw
ĠS ame
ĠS ally
ĠS ah
ĠSah ar
ĠSahar a
ĠS a
ĠSa id
ĠS O
ĠSO ME
ĠS N
ĠSN A
ĠSNA K
ĠSNAK E
ĠS EIZE
ĠS C
ĠSC OR
ĠSCOR E
ĠRonnie kins
ĠRidge b
ĠRidgeb acks
ĠRe ven
ĠReven ges
ĠRe j
ĠRej o
ĠRejo ice
ĠRe ck
ĠReck on
ĠRe ally
ĠRe ach
ĠReach ing
ĠR un
ĠR uddy
ĠR opes
ĠR o
ĠRo bes
ĠR ise
ĠR es
ĠRes ident
ĠQu ent
ĠQuent in
ĠQu arters
ĠPriv ately
ĠPot ted
ĠPot atoes
ĠPle nt
ĠPlent y
ĠPle asure
ĠPl ia
ĠPlia ble
ĠPet rified
ĠPar ace
ĠParace ls
ĠParacels us
ĠP ump
ĠPump kin
ĠP ull
ĠPull ing
ĠP to
ĠPto le
ĠPtole my
ĠP rof
ĠProf it
ĠP rew
ĠPrew et
ĠPrewet ts
ĠP ower
ĠPower ful
ĠP ol
ĠPol tergeist
ĠP o
ĠPo inting
ĠP h
ĠPh y
ĠPhy ll
ĠPhyll id
ĠPhyllid a
ĠP ew
ĠPew ter
ĠP eeling
ĠP ee
ĠPee v
ĠPeev s
ĠPeevs ie
ĠP e
ĠPe arly
ĠP aws
ĠP ast
ĠPast ies
ĠP arkinson
ĠP ans
ĠPans y
ĠP an
ĠPan ick
ĠPanick ing
ĠP ad
ĠPad ding
ĠPadding ton
ĠP A
ĠPA Y
ĠPAY ING
ĠOdd ment
ĠOdd ball
ĠOU CH
ĠO ut
ĠO uch
ĠO ther
ĠO kay
ĠO ff
ĠO cc
ĠOcc asions
ĠO bviously
ĠO ak
ĠO LD
ĠNot able
ĠNever the
ĠNeverthe less
ĠNe ither
ĠNe ck
ĠN umber
ĠN ove
ĠNove mber
ĠN itw
ĠNitw it
ĠN ight
ĠN ew
ĠNew t
ĠN aughty
ĠN ast
ĠNast y
ĠN ames
ĠN O
ĠNO W
ĠMy st
ĠMyst er
ĠMyster ious
ĠMin ister
ĠMight a
ĠMcG uff
ĠMcGuff in
ĠMc K
ĠMcK inn
ĠMcKinn ons
ĠMA G
ĠMAG IC
ĠMA D
ĠM ust
ĠM umm
ĠMumm y
ĠM ug
ĠMug w
ĠMugw ump
ĠM ove
ĠM other
ĠM ost
ĠM ort
ĠMort is
ĠM or
ĠMor ag
ĠM o
ĠMo aning
ĠM ister
ĠMister s
ĠM ir
ĠMir and
ĠMirand a
ĠM ill
ĠMill icent
ĠM idnight
ĠM erry
ĠM en
ĠM e
ĠMe ant
ĠM aster
ĠM any
ĠM and
ĠMand y
ĠM al
ĠMal col
ĠMalcol m
ĠM akes
ĠM ake
ĠM ak
ĠMak ers
ĠM ainly
ĠM a
ĠMa j
ĠMaj or
ĠMajor c
ĠMajorc a
ĠM Y
ĠM R
ĠM E
ĠLi ving
ĠLi c
ĠLic or
ĠLicor ice
ĠLevios a
ĠLeviosa V
ĠL ucky
ĠL ots
ĠL osing
ĠL os
ĠLos s
ĠL oc
ĠLoc om
ĠLocom ot
ĠLocomot or
ĠL is
ĠLis a
ĠL at
ĠLat est
ĠL OO
ĠLOO K
ĠL ET
ĠLET T
ĠLETT ER
ĠKnow s
ĠK at
ĠKat ie
ĠK ILL
ĠJust in
ĠJell y
ĠJ up
ĠJup iter
ĠJ ig
ĠJig ger
ĠIs le
ĠIn tern
ĠIntern ation
ĠInternation al
ĠIn f
ĠInf ern
ĠInfern o
ĠIN S
ĠINS U
ĠINSU L
ĠINSUL T
ĠI re
ĠIre l
ĠIrel and
ĠI nd
ĠInd eed
ĠI m
ĠIm p
ĠImp ortant
ĠI cy
ĠI T
ĠHow ard
ĠHor ror
ĠHor ribly
ĠHope fully
ĠHog gy
ĠHermione l
ĠHead mistress
ĠHe y
ĠHe re
ĠHe lp
ĠHe b
ĠHeb ride
ĠHebride an
ĠHe aven
ĠHe aps
ĠHar ve
ĠHarve y
ĠHar old
ĠHam s
ĠHad n
ĠHa a
ĠHaa a
ĠHaaa a
ĠHaaaa a
ĠHaaaaa a
ĠH ut
ĠH urry
ĠH unting
ĠH undred
ĠHundred s
ĠH umber
ĠHumber to
ĠH ot
ĠHot el
ĠH oping
ĠH opes
ĠH ollow
ĠH old
ĠHold ing
ĠH o
ĠHo vering
ĠH im
ĠH en
ĠHen g
ĠHeng ist
ĠH aven
ĠH ard
ĠHard er
ĠH app
ĠHapp y
ĠH air
ĠH ags
ĠGu ess
ĠGra nd
ĠGra b
ĠGr unn
ĠGrunn ion
ĠGr ow
ĠGo ing
ĠGalle on
ĠGRYFFINDOR S
ĠG um
ĠG round
ĠGround s
ĠG reen
ĠG ree
ĠGree k
ĠG red
ĠG re
ĠGre g
ĠGreg ory
ĠG ran
ĠG os
ĠGos h
ĠGosh aw
ĠGoshaw k
ĠG org
ĠGorg ons
ĠG ord
ĠGord on
ĠG ood
ĠG od
ĠGod ric
ĠG lo
ĠGlo om
ĠG l
ĠGl iding
ĠG ive
ĠG O
ĠGO NE
ĠG ET
ĠFri end
ĠFriend s
ĠForget ting
ĠForget ful
ĠForgetful ness
ĠFor ces
ĠFl our
ĠFlour ish
ĠFl at
ĠFlat ten
ĠFlatten ed
ĠFin ish
ĠFOR WAR
ĠFORWAR D
ĠFOR B
ĠFORB I
ĠFORBI D
ĠF unny
ĠF udge
ĠF our
ĠF orge
ĠF ore
ĠFore st
ĠF orce
ĠF ly
ĠFly ing
ĠF loor
ĠF locks
ĠF ive
ĠF ine
ĠF ind
ĠF etch
ĠFetch in
ĠF es
ĠFes to
ĠFesto ons
ĠF er
ĠF ather
ĠF all
ĠF acing
ĠF R
ĠFR ONT
ĠF OOL
ĠF L
ĠFL Y
ĠExp erts
ĠEx plain
ĠEx cuse
ĠEx cus
ĠExcus es
ĠEx c
ĠExc itement
ĠEvery thing
ĠEv il
ĠEv ents
ĠEngl ish
ĠEn id
ĠEn e
ĠEne mies
ĠE y
ĠEy es
ĠE verywhere
ĠE ve
ĠE lf
ĠElf ric
ĠE le
ĠEle ven
ĠE gg
ĠE aster
ĠE ar
ĠE ag
ĠEag er
ĠDudley kins
ĠDuddy d
ĠDuddyd ums
ĠDra u
ĠDrau ght
ĠDra ft
ĠDraft s
ĠDra con
ĠDracon is
ĠDis g
ĠDisg usted
ĠDis co
ĠDisco ver
ĠDiscover ies
ĠDis ap
ĠDisap peared
ĠDev on
ĠDe ce
ĠDece mber
ĠDe ath
ĠDad dy
ĠDU RSLEY
ĠDO W
ĠDOW N
ĠDO NT
ĠDO ING
ĠD und
ĠDund ee
ĠD umbled
ĠD ro
ĠDro o
ĠDroo ble
ĠD otted
ĠD oris
ĠD oor
ĠD oes
ĠD es
ĠDes ert
ĠD en
ĠDen nis
ĠD eep
ĠD ay
ĠD are
ĠCup s
ĠCup board
ĠCon v
ĠConv ention
ĠCon strictor
ĠCon f
ĠConf ed
ĠCod e
ĠCle arly
ĠCle an
ĠClean sw
ĠCleansw eep
ĠCh f
ĠCh arm
ĠCent a
ĠCenta urs
ĠCRA SH
ĠCRA C
ĠCRAC K
ĠCRACK P
ĠCRACKP OT
ĠCO N
ĠCON K
ĠCO ME
ĠC urses
ĠC urious
ĠC oun
ĠCoun ter
ĠC orn
ĠCorn el
ĠCornel ius
ĠC ondu
ĠCondu ct
ĠC omet
ĠC om
ĠCom pared
ĠC olum
ĠColum n
ĠColumn s
ĠC oll
ĠColl apsible
ĠC old
ĠC o
ĠCo pper
ĠC li
ĠCli od
ĠCliod na
ĠC l
ĠCl ass
ĠC ir
ĠCir ce
ĠC he
ĠChe ss
ĠC auldrons
ĠC aught
ĠC atching
ĠC ap
ĠC akes
ĠC OR
ĠCOR R
ĠCORR I
ĠCORRI DOR
ĠC H
ĠCH AR
ĠCHAR M
ĠCHARM S
ĠBrazil ian
ĠBlack p
ĠBlackp oo
ĠBlackpoo l
ĠBl owing
ĠBl otts
ĠBl acks
ĠBl a
ĠBla ise
ĠBeat s
ĠBe g
ĠBeg inn
ĠBeginn ers
ĠBe f
ĠBef uddle
ĠBe ater
ĠBe ast
ĠBeast s
ĠBar uff
ĠBaruff i
ĠBaruffi o
ĠBar rels
ĠBE LI
ĠBELI E
ĠBELIE VE
ĠBE H
ĠBEH IN
ĠBEHIN D
ĠB ung
ĠBung l
ĠBungl er
ĠB rown
ĠB rought
ĠB ris
ĠBris to
ĠBristo l
ĠB rilliant
ĠB reed
ĠBreed ing
ĠB reat
ĠBreat hing
ĠB re
ĠBre ak
ĠB rass
ĠB r
ĠBr oo
ĠBroo m
ĠBroom stick
ĠBroomstick s
ĠB ook
ĠB onf
ĠBonf ire
ĠB ones
ĠB locks
ĠB letchley
ĠB irthday
ĠB eech
ĠB ed
ĠBed room
ĠB ath
ĠBath ild
ĠBathild a
ĠB arn
ĠB ag
ĠBag sh
ĠBagsh ot
ĠAr s
ĠArs enius
ĠAr g
ĠArg us
ĠAny thing
ĠAny thin
ĠAn other
ĠAn ne
ĠAl ways
ĠAl ic
ĠAlic ia
ĠAl b
ĠAlb eric
ĠAfric an
ĠAfric a
ĠAd al
ĠAdal bert
ĠAN YTH
ĠANYTH ING
ĠAN D
ĠA ug
ĠAug ust
ĠA lohomora
ĠA head
ĠA dd
ĠA cc
ĠAcc ord
ĠAccord ing
ĠA T
ĠA M
Ġ3 8
Ġ38 2
Ġ3 1
Ġ1 7
Ġ17 0
Ġ170 9
Ġ1 6
Ġ16 3
Ġ163 7
Ġ1 4
Ġ14 7
Ġ147 3
Ġ �
Ġ� �
Ġâ �
Ġâ� �
Ġâĸ łâĢĿ
Ġ vers
Ġvers us
Ġ ve
Ġve ins
Ġ ut
Ġut ter
Ġ ident
Ġident ical
Ġ i
Ġi vy
Ġ ?
Ġ ;
Ġ :
Ġ 2
Ġ 0
Ġ -
Ġ !âĢĿ
âĢĿ ),
âĢĻ ?
âĢ� �
y p
yp ical
y in
y ell
yell ow
wh ich
w itted
w imble
w hat
w enty
w at
wat c
watc her
watcher s
v iew
v est
vest ig
vestig ations
ut y
us y
urp in
ur st
ung ry
un less
ul st
ulst rode
ul p
ulp in
uck ling
u bber
the y
th is
th irty
t ry
t here
t elling
t ell
sw ore
str uck
st re
stre aked
st irring
side red
sh arp
se ven
se e
se c
sec urity
s orry
s mat
smat ter
s m
sm elling
s ized
ro ckle
rockle h
rockleh urst
rific us
ri key
ri ck
rick y
ret end
refect s
ree ping
ra in
r ote
rote ction
r gh
r ag
rag ons
qu ick
quick ly
post er
ple ase
pl ayed
pl aces
ping ton
pe wter
p robably
p ose
p oor
p lo
plo d
plod able
p ick
p ers
p en
pen ce
p ast
owd ered
ow ling
os it
osit ive
ort unately
organ ized
or rible
or pington
or bert
op yin
oo oo
oooo h
oo ks
onf use
on sidered
omet s
omb ing
om mon
ok ens
od ied
o ose
o oh
o ooh
o oooh
o ooooh
o oooooh
o ad
o a
nt il
not hing
n o
n iff
n eed
n ame
my self
mm m
memb er
me re
m s
m oke
m in
min ute
m ar
mar ched
m aking
lo ops
llivand er
li pping
li pped
le gged
le ad
le a
lea a
leaa argh
l ife
j us
j ump
izard s
itt any
is pers
ir on
ip toe
ink y
in i
imble wimble
iff icul
ifficul t
if th
if teen
i ven
i et
iet ly
i br
ibr ary
i Vo
how ling
hee led
he ther
he aven
heaven s
h onestly
h ocus
h anging
h anded
gr ay
get ting
g ot
f ree
f our
f ish
f ifth
f eeling
f ashion
fashion ed
ey ed
ex plodable
ex cept
ew itch
ever us
ev il
ev ent
event een
et ention
est royed
est ions
es ign
er va
ep uty
ep ort
el ow
el ighted
ef ense
e ight
e ering
e at
eat en
e ach
d ragon
d ium
d iot
d er
d ance
cr ushing
col ored
ch osen
ch ocolate
c urses
c reeping
c old
c oding
c an
bl ue
bl ond
bb ott
b right
b rain
b ou
b oth
b ombing
b odied
aw ake
ast ed
as er
ard ly
ar ving
ar on
ar lock
ar ling
ap ut
ap le
and ering
an while
an cy
amp ires
allop in
al though
al agm
alagm ite
ail view
ac Dou
acDou gal
ab out
ab ini
a ah
Z abini
Your s
You n
Youn g
Ye ars
YTH ER
YTHER IN
Y C
YC LE
YCLE S
Would n
Wh ite
Wh ispers
We re
We ird
We ather
We aring
W izards
W ishing
W ish
W iping
W hether
W ay
W atching
W arts
W arlock
W anted
W andering
VE R
V ol
V ampires
V O
VO LD
VOLD E
VOLDE M
VOLDEM OR
VOLDEMOR T
Use ful
Un usually
Un icorn
Un fortunately
UD LEY
U rn
U rgh
U ntil
U RSLEY
U P
U N
U M
UM P
Turn ing
Tr ust
Tr ue
To o
Th row
Th ought
Th omas
Th irteen
Th ink
Th ief
T ypical
T ying
T wenty
T ut
T urpin
T roll
T ricky
T revor
T ransfiguration
T ook
T onight
T old
T okens
T iptoe
T erm
T en
T each
T ap
Sw ish
Sw ap
St upid
St range
St orm
St irring
St ick
St arving
St alagmite
Spe lls
Spe aking
Should n
Shhh h
Sh ow
Sh o
Sho o
Sh an
Sh aking
Sh ake
Send ing
See ms
See kers
See ker
See ing
Se ize
Sc owling
ST O
STO P
SH H
SHH H
SHHH H
S not
S niff
S moke
S lowly
S lipping
S it
S everus
S eventeen
S et
S ent
S cuse
S chool
S O
S L
SL YTHERIN
S I
SI LE
SILE N
SILEN C
SILENC E
S EIZE
Ru beus
Re member
R ock
R esign
R eport
R ed
R ailview
R UN
Qu ietly
Qu estions
Pot ters
Pot ions
Pl ay
Pl atform
Pet unia
Pet rificus
Per ks
Pass word
Pass ersby
P rotection
P robably
P retend
P refects
P owdered
P ositive
P orpington
P oor
P oke
P eering
P ay
P arkinson
Ow n
Ow ls
Out side
Or der
OU T
OT OR
OTOR C
OTORC YCLES
OT H
OTH ING
OO M
O uter
O ur
O uch
O ooooooh
O ooooh
O oh
O llivander
O liver
O kay
O bviously
No pe
No body
NE VER
N umber
N ott
N orbert
N icolas
N ice
N ew
N amed
N OTHING
N O
Mom my
Mm m
Min istry
Min erva
Might a
Me et
Me anwhile
M uggle
M ove
M ount
M orning
M ore
M oon
M onday
M ind
M imblewimble
M ere
M arge
M aple
M ad
M acDougal
M OTORCYCLES
Look s
Light s
Le gs
Le aves
Le ave
LI AR
L ongbottom
L oad
L ily
L ibrary
L UMP
K ILL
J us
Is n
In vestigations
I diot
I ckle
I Vo
How ling
How ever
Head s
Head master
He lp
He art
HA VE
H ungry
H orrible
H old
H mmm
H m
Hm m
H i
H er
H edwig
H aving
H aven
H as
H ardly
H anging
Gr unt
Gr anger
Gr ade
Good ness
G ulpin
G oyle
G otta
G iven
G eorge
G allopin
G OT
Four th
For give
For get
Fl ushed
Fl itwick
Fl aming
Fl amel
Fin ished
Fin ch
F riday
F ound
F oul
F ortunately
F lew
F letchley
F irs
F innigan
F ine
F ifteen
F eeling
F antastic
F ancy
F LUMP
Ex actly
Every thing
Every body
En ter
En ough
E verywhere
E asily
Dou ble
Dad dy
D ragons
D own
D ittany
D inky
D ifficult
D evil
D etention
D estroyed
D eputy
D elighted
D efense
D ead
D arling
D anger
D URSLEY
D UDLEY
Che er
Che ating
Ch uckling
Ch oose
Ch aser
C urious
C rikey
C rabbe
C opyin
C onsidered
C onfuse
C ommon
C oming
C omets
C omb
C ertainly
C ause
C atch
C aput
C alm
C AR
Bl ubber
Bl asted
Be hind
Be cause
B y
B usy
B ulstrode
B rown
B roken
B rocklehurst
B ring
B razil
B oth
B orrowed
B oot
B ooks
B ones
B oa
B leaaargh
B ewitch
B est
B elow
B aron
B arking
B ad
B OOM
At ta
At e
As ked
Are n
Any thing
An uthinq
AR E
A round
A m
A lohomora
A ha
A bou
A bbott
A argh
A aah
A LL
?âĢĿ ),
? âĢĻ
. .âĢĿ
. ..âĢĿ
. ,
, âĢĻ
) ;
) .âĢĿ
' .âĢĿ
!âĢĿ ).
!âĢĿ ),
! âĢĻ
Ģ� �
Ģ� �
Ģ� �
Ģ� �
Ģ� �
ĠâĢĿ )
Ġz om
Ġyour se
Ġyou t
Ġyes ter
Ġyer se
Ġye a
Ġy aw
Ġy ar
Ġy a
Ġwre n
Ġwr ot
Ġwr itt
Ġwr it
Ġwr ink
Ġwr ing
Ġwor ri
Ġwitch c
Ġwit che
Ġwit c
Ġwho op
Ġwho e
Ġwhispe rer
Ġwhispe re
Ġwhere ve
Ġwhen e
Ġwhe t
Ġwhe l
Ġwhat e
Ġwh it
Ġwh in
Ġwh a
Ġweather m
Ġwe l
Ġwe ir
Ġwe ig
Ġwe i
Ġwe at
Ġwe a
Ġwas ter
Ġwa v
Ġwa i
Ġwa f
Ġw rou
Ġw ri
Ġw ra
Ġw ou
Ġw ol
Ġw ok
Ġw is
Ġw ip
Ġw inn
Ġw ink
Ġw if
Ġw id
Ġw ick
Ġw en
Ġw art
Ġw ar
Ġw an
Ġw ak
Ġv ol
Ġv ie
Ġv ic
Ġv e
Ġv au
Ġv am
Ġv a
Ġus he
Ġup w
Ġup st
Ġup s
Ġup ri
Ġup r
Ġup p
Ġunt ou
Ġunt id
Ġun st
Ġun s
Ġun lo
Ġun le
Ġun kn
Ġun k
Ġun ic
Ġun D
Ġu ndern
Ġu nd
Ġu m
Ġu b
Ġtw itch
Ġtw it
Ġtw is
Ġtw ink
Ġtw i
Ġtw ent
Ġtw el
Ġtw e
Ġtw ang
Ġtw an
Ġturn i
Ġtur ke
Ġtroll e
Ġtro p
Ġtri f
Ġtri al
Ġtremb l
Ġtre as
Ġtre a
Ġtra ve
Ġtra i
Ġtr ud
Ġtr u
Ġtr as
Ġtom at
Ġto y
Ġto s
Ġto pp
Ġto ot
Ġto l
Ġto i
Ġto g
Ġto ff
Ġto f
Ġto d
Ġto as
Ġto a
Ġtim id
Ġtight en
Ġthought f
Ġthick s
Ġthere f
Ġthem se
Ġthe s
Ġthe r
Ġthe i
Ġth um
Ġth u
Ġth rou
Ġth ous
Ġth o
Ġth ir
Ġth i
Ġth a
Ġter rif
Ġter ri
Ġter r
Ġten n
Ġteac up
Ġteac he
Ġte et
Ġtapest ri
Ġtail co
Ġta un
Ġta pp
Ġta bb
Ġt un
Ġt umb
Ġt um
Ġt u
Ġt ong
Ġt on
Ġt inn
Ġt ink
Ġt i
Ġt es
Ġt ed
Ġt au
Ġt as
Ġt an
Ġt am
Ġt al
Ġt ag
Ġsweet um
Ġsw un
Ġsw or
Ġsw is
Ġsw im
Ġsw if
Ġsw eep
Ġsw art
Ġsw ar
Ġsupp o
Ġsun sh
Ġsun s
Ġsub j
Ġsu s
Ġsu g
Ġsu ck
Ġstraight en
Ġstra pp
Ġstra p
Ġstra nd
Ġstra in
Ġsto pp
Ġsto op
Ġstalagm it
Ġstalact it
Ġstal ag
Ġstairc as
Ġst up
Ġst un
Ġst umb
Ġst um
Ġst u
Ġst rod
Ġst ran
Ġst ore
Ġst on
Ġst ok
Ġst ink
Ġst in
Ġst i
Ġst er
Ġst alk
Ġsqu int
Ġsqu in
Ġsqu e
Ġsqu as
Ġspr int
Ġspl as
Ġspect acle
Ġspect a
Ġsp y
Ġsp re
Ġsp ra
Ġsp ott
Ġsp ok
Ġsp it
Ġsp inn
Ġsp ee
Ġsp aw
Ġsp ar
Ġsp ac
Ġsp a
Ġsomet im
Ġsomet h
Ġsome w
Ġsome h
Ġsome b
Ġso ck
Ġso c
Ġso bb
Ġso ar
Ġso a
Ġsnow b
Ġsnake l
Ġsn ore
Ġsn or
Ġsn if
Ġsn at
Ġsn ak
Ġsm ugg
Ġsm ud
Ġsm u
Ġsm ok
Ġsm as
Ġsm ar
Ġsleep in
Ġsl ump
Ġsl um
Ġsl u
Ġsl ou
Ġsl ott
Ġsl it
Ġsl ink
Ġsk im
Ġsince re
Ġsim p
Ġsim m
Ġsile n
Ġsight ing
Ġshe l
Ġshe e
Ġshe a
Ġshall ow
Ġsh ud
Ġsh u
Ġsh oo
Ġsh ive
Ġsh if
Ġsh ie
Ġsh am
Ġsh abb
Ġsh a
Ġsev ent
Ġsee p
Ġsecond ar
Ġsec ur
Ġsec re
Ġse l
Ġse iz
Ġse i
Ġse ct
Ġscri bb
Ġscraw n
Ġscar le
Ġsc ud
Ġsc u
Ġsc ro
Ġsc re
Ġsc or
Ġsc is
Ġsc ien
Ġsc i
Ġsc ent
Ġsc at
Ġsc abb
Ġsa u
Ġsa p
Ġsa m
Ġsa ll
Ġsa l
Ġsa in
Ġsa i
Ġsa gg
Ġsa g
Ġsa ck
Ġs unn
Ġs um
Ġs ud
Ġs q
Ġs ou
Ġs orce
Ġs or
Ġs is
Ġs ill
Ġs ig
Ġs ess
Ġs es
Ġs en
Ġs ch
Ġs ar
Ġru in
Ġru bb
Ġro p
Ġro o
Ġro am
Ġro a
Ġri ver
Ġri pp
Ġri gg
Ġri f
Ġri b
Ġrest ri
Ġrest les
Ġres c
Ġrepl ac
Ġrem ot
Ġrem ain
Ġrefle ct
Ġref u
Ġreason ab
Ġreal iz
Ġre w
Ġre q
Ġre me
Ġre b
Ġre all
Ġre a
Ġra pp
Ġra c
Ġr ust
Ġr us
Ġr umb
Ġr udd
Ġr ott
Ġr ant
Ġr am
Ġr ag
Ġqu ive
Ġqu it
Ġqu il
Ġqu es
Ġqu ar
Ġpun is
Ġpun ct
Ġpump k
Ġpu z
Ġpro g
Ġpro b
Ġpre p
Ġpre fe
Ġpr un
Ġpost m
Ġposs ib
Ġposs i
Ġposs ess
Ġposit ive
Ġpor rid
Ġpop ul
Ġpol terge
Ġpol ter
Ġpol it
Ġpo pp
Ġpo le
Ġpo in
Ġple as
Ġple ad
Ġplay f
Ġplat ter
Ġplat f
Ġpl ung
Ġpl un
Ġpl um
Ġpl ow
Ġpl ast
Ġpl ac
Ġpl a
Ġper h
Ġper for
Ġper f
Ġper c
Ġpe w
Ġpe pp
Ġpe op
Ġpe l
Ġpe er
Ġpe ck
Ġpe b
Ġpe ar
Ġpat ter
Ġpast i
Ġpass w
Ġpass ers
Ġpass ag
Ġpart n
Ġpar ad
Ġpan el
Ġpack ag
Ġpa us
Ġp us
Ġp urs
Ġp um
Ġp ud
Ġp ra
Ġp oun
Ġp it
Ġp inn
Ġp ic
Ġp ee
Ġp aw
Ġp au
Ġp as
Ġp ark
Ġp are
Ġp ap
Ġp ant
Ġp ag
Ġp ac
Ġowl er
Ġover s
Ġover g
Ġover co
Ġover c
Ġout t
Ġour se
Ġord in
Ġor n
Ġor an
Ġop er
Ġon w
Ġon t
Ġon l
Ġon c
Ġoff i
Ġoff h
Ġoff e
Ġof t
Ġocc as
Ġob s
Ġob j
Ġo v
Ġo t
Ġo m
Ġo l
Ġo k
Ġo i
Ġo d
Ġo c
Ġo a
Ġnow he
Ġnot i
Ġnot h
Ġnoise less
Ġnod d
Ġno st
Ġno b
Ġnight t
Ġnight f
Ġnewsp ap
Ġnear b
Ġne x
Ġne p
Ġne it
Ġne i
Ġne a
Ġnar r
Ġn ut
Ġn urs
Ġn ur
Ġn um
Ġn ud
Ġn u
Ġn in
Ġn i
Ġn aught
Ġn au
Ġn at
Ġn as
Ġn am
Ġn a
Ġmy se
Ġmust a
Ġmu g
Ġmove m
Ġmon ks
Ġmom m
Ġmo ss
Ġmid n
Ġmean wh
Ġmean w
Ġme re
Ġme nd
Ġme mb
Ġme ll
Ġme l
Ġmark ing
Ġman n
Ġman ag
Ġm umb
Ġm udd
Ġm ound
Ġm ou
Ġm orn
Ġm or
Ġm od
Ġm ix
Ġm ir
Ġm if
Ġm ent
Ġm ed
Ġm as
Ġm ang
Ġlo om
Ġli q
Ġli f
Ġli ck
Ġli b
Ġless en
Ġle ve
Ġle n
Ġle m
Ġle gg
Ġle f
Ġle er
Ġle c
Ġle at
Ġle as
Ġle ar
Ġle ak
Ġlau g
Ġl y
Ġl ung
Ġl un
Ġl u
Ġl ou
Ġl ott
Ġl os
Ġl op
Ġl on
Ġl itt
Ġl is
Ġl aught
Ġl at
Ġl ak
Ġkn u
Ġkn itt
Ġkn it
Ġkn i
Ġkid n
Ġk in
Ġk i
Ġk ee
Ġj um
Ġj ud
Ġj ou
Ġj ok
Ġj i
Ġj aw
Ġj abb
Ġj a
Ġit se
Ġinv ent
Ġintrod u
Ġinter r
Ġint ro
Ġint ent
Ġinst r
Ġinst e
Ġin j
Ġin for
Ġin che
Ġimpress ive
Ġimp ro
Ġimp res
Ġimp ort
Ġimp at
Ġimag in
Ġim m
Ġign or
Ġid i
Ġhung ri
Ġhu nd
Ġhu gg
Ġhow e
Ġhour glass
Ġhour gl
Ġhour g
Ġhor rif
Ġhor rib
Ġhor ri
Ġhome wor
Ġhome w
Ġho ve
Ġho s
Ġho ist
Ġho c
Ġho bb
Ġhis s
Ġhim se
Ġher se
Ġher b
Ġheart st
Ġhead mist
Ġhead mas
Ġhead m
Ġhead le
Ġhead l
Ġhe e
Ġhat che
Ġhapp in
Ġhapp i
Ġhand k
Ġhand f
Ġha p
Ġha l
Ġha i
Ġh umm
Ġh udd
Ġh ud
Ġh ou
Ġh om
Ġh oll
Ġh in
Ġh i
Ġh atch
Ġgri e
Ġgreat n
Ġgre as
Ġgra v
Ġgr un
Ġgr um
Ġgr ud
Ġgr itt
Ġgr inn
Ġgr ind
Ġgot t
Ġgood n
Ġgo o
Ġgo l
Ġgo g
Ġgo b
Ġglo b
Ġgle am
Ġgl u
Ġgl ow
Ġgl or
Ġgl ist
Ġgl in
Ġgl id
Ġgl ar
Ġgl an
Ġgi bb
Ġget up
Ġget u
Ġget t
Ġgamek eep
Ġg ow
Ġg if
Ġg en
Ġg e
Ġg an
Ġg am
Ġfro z
Ġfriends h
Ġfree z
Ġfr ow
Ġfr on
Ġfr ay
Ġfr ant
Ġfr an
Ġfr am
Ġfour t
Ġforget t
Ġfore he
Ġfor w
Ġfor c
Ġfoot b
Ġflo at
Ġfl us
Ġfl un
Ġfl u
Ġfl itt
Ġfl it
Ġfl ims
Ġfl im
Ġfl i
Ġfl av
Ġfl as
Ġfl ank
Ġfl am
Ġfl ag
Ġfirst h
Ġfire w
Ġfire p
Ġfire l
Ġfire c
Ġfin is
Ġfif t
Ġfe l
Ġfe at
Ġfe a
Ġfan at
Ġfa it
Ġfa i
Ġfa c
Ġf unn
Ġf ung
Ġf umb
Ġf ud
Ġf ry
Ġf on
Ġf itt
Ġf is
Ġf ie
Ġf i
Ġf et
Ġf au
Ġf ash
Ġf ant
Ġf ang
Ġeye glass
Ġeye gl
Ġeye g
Ġext re
Ġexpe ll
Ġexc u
Ġexc ite
Ġexam in
Ġex pl
Ġex it
Ġex ist
Ġex is
Ġex h
Ġex a
Ġevery th
Ġevery t
Ġevery b
Ġesc a
Ġene mi
Ġend le
Ġen ve
Ġen v
Ġen ou
Ġen or
Ġempt i
Ġel b
Ġel ast
Ġeh r
Ġed g
Ġeas i
Ġe very
Ġe ve
Ġe q
Ġe it
Ġe i
Ġe g
Ġe f
Ġe el
Ġe e
Ġe c
Ġe art
Ġe a
Ġdro pp
Ġdri ll
Ġdri f
Ġdri bb
Ġdraw b
Ġdrag g
Ġdr un
Ġdr umm
Ġdr u
Ġdr on
Ġdown w
Ġdown st
Ġdown ri
Ġdown f
Ġdormit or
Ġdoor p
Ġdoor m
Ġdoor k
Ġdoor b
Ġdon ke
Ġdod g
Ġdo z
Ġdis ple
Ġdis l
Ġdis he
Ġdis c
Ġdis a
Ġdiffere n
Ġdif fe
Ġdi ver
Ġdet er
Ġdest ro
Ġdesk to
Ġdel ive
Ġdel ay
Ġdecor at
Ġdec id
Ġde li
Ġde ck
Ġde at
Ġde a
Ġday l
Ġdark n
Ġdark en
Ġd y
Ġd ur
Ġd unn
Ġd um
Ġd u
Ġd res
Ġd ow
Ġd ott
Ġd ot
Ġd ir
Ġd ee
Ġd aw
Ġd aught
Ġd au
Ġd as
Ġd ar
Ġd an
Ġd abb
Ġcur re
Ġcup bo
Ġcross b
Ġcr us
Ġcr umb
Ġcr um
Ġcr u
Ġcr ow
Ġcr ink
Ġcr im
Ġcr as
Ġcr am
Ġcour t
Ġcou g
Ġcorn f
Ġcont a
Ġcon stri
Ġcon j
Ġcomp ut
Ġcomp an
Ġcom f
Ġcoll aps
Ġco z
Ġco ve
Ġco pp
Ġco oll
Ġco il
Ġco ff
Ġco c
Ġco bb
Ġco b
Ġco al
Ġclo s
Ġcle n
Ġcl un
Ġcl u
Ġcl ou
Ġcl ink
Ġcl ing
Ġcl im
Ġcl if
Ġcl at
Ġcl ang
Ġcl an
Ġchild ish
Ġchest n
Ġchess m
Ġche e
Ġche at
Ġch u
Ġch os
Ġch op
Ġch ok
Ġch oc
Ġch an
Ġch amb
Ġch am
Ġch al
Ġch ain
Ġch a
Ġcent u
Ġcelebr at
Ġce il
Ġce as
Ġcare les
Ġcan ar
Ġca ut
Ġc us
Ġc unn
Ġc un
Ġc u
Ġc ri
Ġc ra
Ġc ond
Ġc it
Ġc in
Ġc i
Ġc er
Ġc auldr
Ġc au
Ġc al
Ġc ak
Ġc ag
Ġbut t
Ġbus in
Ġbu ry
Ġbu il
Ġbu i
Ġbu b
Ġbroom st
Ġbro od
Ġbro k
Ġbri lli
Ġbri e
Ġbree z
Ġbreath less
Ġbra v
Ġbra c
Ġbr us
Ġbo ss
Ġbo i
Ġbo bb
Ġblue b
Ġblack n
Ġblack bo
Ġblack b
Ġbl us
Ġbl u
Ġbl oo
Ġbl ok
Ġbl im
Ġbl an
Ġbig g
Ġbew itch
Ġbew it
Ġbeh a
Ġbeg inn
Ġbed t
Ġbec au
Ġbea ver
Ġbe he
Ġbe gg
Ġbe f
Ġbe as
Ġbe am
Ġbe ad
Ġbathro b
Ġbat t
Ġbar ri
Ġbar re
Ġban n
Ġball o
Ġbag g
Ġbad g
Ġback w
Ġback g
Ġb unn
Ġb ump
Ġb um
Ġb ud
Ġb rou
Ġb rid
Ġb ou
Ġb ore
Ġb or
Ġb le
Ġb itt
Ġb ir
Ġb ind
Ġb ic
Ġb er
Ġb a
Ġat o
Ġast rid
Ġas p
Ġas le
Ġas id
Ġas he
Ġar ran
Ġar r
Ġap pe
Ġany w
Ġany th
Ġany t
Ġany m
Ġann oun
Ġang ri
Ġan uthin
Ġan ut
Ġan s
Ġan ot
Ġan c
Ġam u
Ġam ou
Ġall ow
Ġalche m
Ġal way
Ġal w
Ġal th
Ġal ter
Ġal t
Ġal s
Ġal ou
Ġal on
Ġal m
Ġal i
Ġal c
Ġal ar
Ġair p
Ġag re
Ġag on
Ġaftern o
Ġadv an
Ġadmi rer
Ġadd re
Ġac ro
Ġab y
Ġa v
Ġa un
Ġa u
Ġa rou
Ġa i
Ġa he
Ġa f
ĠYes ter
ĠY O
ĠWood c
ĠWhere ve
ĠWe l
ĠWe ir
ĠW ri
ĠW oo
ĠW o
ĠW iz
ĠW is
ĠW i
ĠW he
ĠW es
ĠW art
ĠW ant
ĠW an
ĠW alk
ĠW al
ĠW a
ĠW O
ĠW I
ĠW HA
ĠW H
ĠV olde
ĠV old
ĠV ie
ĠV i
ĠV ern
ĠV er
ĠUn fort
ĠU ri
ĠU ndern
ĠU nd
ĠTw el
ĠTw e
ĠThe or
ĠTh ous
ĠTh ou
ĠTh om
ĠTh ir
ĠTh an
ĠTR I
ĠT ul
ĠT u
ĠT ri
ĠT re
ĠT ransfig
ĠT ransf
ĠT rans
ĠT ran
ĠT ow
ĠT ong
ĠT on
ĠT im
ĠT hing
ĠT er
ĠT e
ĠT aw
ĠT a
ĠT HA
ĠSt on
ĠSt air
ĠSir i
ĠSh oot
ĠSee k
ĠSe ct
ĠSc abb
ĠS udden
ĠS ud
ĠS orce
ĠS or
ĠS omet
ĠS om
ĠS ly
ĠS l
ĠS it
ĠS in
ĠS id
ĠS i
ĠS ch
ĠS at
ĠS am
ĠS all
ĠS E
ĠRon a
ĠRe c
ĠR udd
ĠR ud
ĠR op
ĠR om
ĠR is
ĠR i
ĠR a
ĠQu it
ĠQu ir
ĠQu idd
ĠQu id
ĠQu ar
ĠQu a
ĠPot t
ĠPot ion
ĠPot at
ĠPl at
ĠPet un
ĠPet rif
ĠPet ri
ĠPer h
ĠP um
ĠP u
ĠP t
ĠP ri
ĠP re
ĠP ow
ĠP om
ĠP in
ĠP aw
ĠP as
ĠP ark
ĠP a
ĠO u
ĠO lli
ĠO ll
ĠO li
ĠO l
ĠO k
ĠO d
ĠO c
ĠO b
ĠO L
ĠNor w
ĠNor r
ĠNor b
ĠNo b
ĠN umb
ĠN um
ĠN it
ĠN in
ĠN im
ĠN ic
ĠN i
ĠN ev
ĠN aught
ĠN au
ĠN am
ĠN a
ĠMom m
ĠMin ist
ĠM um
ĠM u
ĠM ot
ĠM org
ĠM ond
ĠM on
ĠM od
ĠM is
ĠM ims
ĠM im
ĠM id
ĠM i
ĠM ay
ĠM as
ĠM an
ĠM alf
ĠM ain
ĠM ag
ĠM ad
ĠL uck
ĠL u
ĠL ot
ĠL or
ĠL ongb
ĠL ong
ĠL o
ĠL itt
ĠL it
ĠL if
ĠL eak
ĠL ad
ĠL a
ĠL O
ĠL E
ĠK n
ĠK e
ĠK I
ĠJ u
ĠJ ord
ĠJ o
ĠJ am
ĠIn v
ĠIn ter
ĠI ck
ĠI c
ĠHer b
ĠHead mist
ĠHead m
ĠHe l
ĠHe ap
ĠHe a
ĠH ur
ĠH un
ĠH umb
ĠH um
ĠH u
ĠH ous
ĠH ou
ĠH op
ĠH oll
ĠH i
ĠH ed
ĠH al
ĠH ag
ĠGr ing
ĠGr ang
ĠG ryffind
ĠG ryff
ĠG ry
ĠG rou
ĠG riph
ĠG ri
ĠG oy
ĠG or
ĠG inn
ĠG in
ĠG i
ĠG e
ĠG RYFFIN
ĠG RYFF
ĠG RY
ĠG R
ĠG E
ĠFl uff
ĠFl itw
ĠFl it
ĠFl av
ĠFl ame
ĠFl a
ĠFOR W
ĠF unn
ĠF ung
ĠF un
ĠF ud
ĠF rid
ĠF r
ĠF ou
ĠF oll
ĠF o
ĠF lock
ĠF lo
ĠF ire
ĠF ir
ĠF innig
ĠF inn
ĠF il
ĠF ig
ĠF i
ĠF et
ĠF e
ĠF an
ĠF ac
ĠF a
ĠF OO
ĠF O
ĠExp ert
ĠEvery b
ĠEn g
ĠEm er
ĠE very
ĠE e
ĠE as
ĠE a
ĠDudley k
ĠDra c
ĠDe ve
ĠDad d
ĠDU R
ĠD urs
ĠD ur
ĠD unn
ĠD un
ĠD umb
ĠD um
ĠD udd
ĠD ud
ĠD u
ĠD ri
ĠD r
ĠD ott
ĠD ot
ĠD or
ĠD o
ĠD ig
ĠD ee
ĠD ar
ĠCh rist
ĠCh r
ĠCh oc
ĠCh o
ĠCh ar
ĠCh am
ĠCRA S
ĠCO M
ĠC urs
ĠC uri
ĠC ur
ĠC u
ĠC rabb
ĠC ra
ĠC ou
ĠC or
ĠC ond
ĠC ol
ĠC e
ĠC auldr
ĠC au
ĠC atch
ĠC at
ĠC ak
ĠC R
ĠBlud g
ĠBl ow
ĠBl ott
ĠBl im
ĠBe h
ĠBe an
ĠBar re
ĠBE L
ĠB un
ĠB rou
ĠB ri
ĠB raz
ĠB ra
ĠB ot
ĠB on
ĠB od
ĠB o
ĠB lock
ĠB lo
ĠB letch
ĠB let
ĠB le
ĠB ir
ĠB in
ĠB es
ĠB er
ĠB ee
ĠB at
ĠB an
ĠAn n
ĠAll e
ĠAN YT
ĠAN Y
ĠA un
ĠA u
ĠA st
ĠA loh
ĠA lo
ĠA he
ĠA c
ĠA b
Ġ ver
Ġ rou
Ġ q
Ġ ig
Ġ Ye
Ġ Q
Ġ "..
Ġ ".
Ġ !
� �
� �
� �
� �
� �
� �
� �
âĢĿ )
âĢľ âĢ�
âĢľ .
âĢ� �
� )
� âĢ�
� �
� .
� ?
� .
� ,
� łâĢĿ
� ł
� �
�Ģ� �
�Ģ� �
�Ģ� �
�Ģ� �
�Ģ� �
� Ģ
� �
� �
� z
� y
� w
� v
� u
� t
� s
� r
� q
� p
� o
� n
� m
� l
� k
� j
� i
� h
� g
� f
� e
� d
� c
� b
� a
� Y
� W
� V
� U
� T
� S
� R
� Q
� P
� O
� N
� M
� L
� K
� J
� I
� H
� G
� F
� E
� D
� C
� B
� A
� ?
� ;
� :
� 4
� 3
� 2
� 1
� 0
� /
� .
� -
� ,
� (
� "
� !
� âĢĿ
� âĢ�
� �
zz le
ze ment
z zing
z oo
z om
z o
z ling
z le
z l
z in
z ily
z il
z ig
z i
z es
z ers
z er
z ards
z ard
z ar
z agging
z ag
z a
ys m
ye ing
y way
y ward
y w
y thing
y thin
y th
y t
y st
y self
y se
y pes
y pe
y one
y ond
y on
y o
y mb
y m
y lo
y ll
y le
y l
y ke
y k
y is
y i
y h
y g
y f
y es
y er
y d
y cle
y c
y b
y ard
y ar
y al
y a
xt y
xt ure
xt u
xt h
xt een
xt e
x plain
x pl
x pe
x p
x it
x is
x ir
x iously
x ious
x ing
x in
x ible
x i
x h
x es
x er
x ed
x e
x cuse
x cus
x ch
x ce
x c
x as
x am
x actly
x a
wor ks
we g
way ing
way ed
ward ly
ward ing
ward ed
w y
w un
w ump
w um
w u
w t
w s
w ra
w r
w ore
w olf
w ol
w ny
w n
w ls
w ling
w led
w l
w ked
w k
w itt
w itching
w itch
w it
w ish
w ise
w is
w ink
w ing
w in
w im
w ild
w if
w ick
w ich
w ice
w ic
w i
w he
w ful
w f
w et
w ers
w ering
w ered
w er
w ent
w en
w ell
w el
w eep
w een
w ee
w ed
w d
w b
w atch
w art
w are
w ar
w ap
w an
w am
w all
w ald
w ake
w ak
w ag
w a
vo id
vis ion
vis ible
vis ib
vis i
ving ly
very thing
very t
very body
very b
vers us
vers kin
vers ion
ver us
ver u
ver t
ver ness
ver n
ver more
ver m
ver ishly
ver ish
ver is
ver in
ver ies
ver i
ver he
ver g
ver c
ver al
ver a
ven s
ven ing
ven ges
ven ge
ven g
ven c
velo pe
velo p
ve y
ve way
ve w
ve re
ve nder
ve nd
ve ment
ve mb
ve m
ve ly
ve ling
ve ins
ve in
ve al
ve a
vand ers
vand er
v s
v ously
v ous
v ou
v ored
v ore
v on
v om
v ol
v oked
v ok
v ive
v ised
v ious
v ine
v ince
v in
v ily
v ill
v il
v ig
v ies
v ie
v iding
v ide
v id
v ice
v ic
v i
v ety
v et
v enty
v ents
v ention
v enth
v ent
v au
v ati
v ate
v at
v ast
v as
v ant
v an
v am
v al
v ain
v aging
v age
v ag
v able
ut ure
ut u
ut tled
ut ting
ut tering
ut tered
ut ter
ut t
ut side
ut ions
ut if
ut ies
ut i
ut h
ut es
ut ching
ut ches
ut ched
ut che
ut ch
ut c
ust y
ust om
ust n
ust led
ust l
ust ing
ust in
ust er
ust ac
ust a
ush ion
us u
us sing
us s
us pe
us p
us l
us k
us ion
us ing
us in
us ic
us i
us es
us cu
us cle
us c
us b
us an
us ages
us age
us ag
ursley s
ursley ish
ursley is
urs ing
urs day
urs d
urp r
urp ose
urn s
urn ished
urn is
urn ing
urn in
urn i
urn ed
urn ame
uri ously
uri es
ure s
ure ly
ure ens
ure en
urd ling
ur v
ur ting
ur ther
ur ted
ur t
ur rying
ur round
ur rou
ur ried
ur ri
ur rey
ur ret
ur red
ur re
ur r
ur ple
ur or
ur nt
ur m
ur ly
ur ling
ur led
ur l
ur king
ur ke
ur k
ur it
ur in
ur ger
ur ged
ur g
ur day
ur ched
ur ch
ur c
ur b
ur at
ur ant
ur an
ur ally
ur all
ur al
upid ly
upid est
up reme
up re
up iter
up it
up ine
up in
up ils
up il
up board
up bo
up b
unt led
unt ie
unt ed
unning s
unn ion
unn in
unn els
unn el
unn ed
unn e
ung ri
ung l
ung er
undred s
under ous
under ing
under head
und ered
und ee
und ay
unch time
unch t
un shine
un sh
un s
un r
un light
un les
un le
un l
un ks
un ished
un ish
un is
un i
un ge
un er
un ct
un ching
un ches
un ched
un che
un c
un b
un ate
un at
ump y
ump s
ump led
ump kin
ump k
ump ing
ump in
ump ily
ump hs
ump h
ump ets
ump et
umm y
umm er
umm at
umm aging
umm aged
umm ag
umber to
umb ugs
umb u
umb s
umb ly
umb l
umb f
umb ers
umb ered
umb e
um st
um ors
um or
um n
um med
um ly
um ing
um in
um es
um ents
um ent
um e
um an
ull ing
ull ied
ull i
ull ets
ull et
ull er
ull ed
ull ab
ull a
uli ps
uli ar
ul ty
ul ts
ul tin
ul ted
ul t
ul ped
ul ous
ul n
ul king
ul k
ul ging
ul g
ul ars
ul arly
ul a
uid ess
ugg ling
ugg les
ugg led
ugg ing
ugg ed
ugg age
ug w
ug ust
uft y
uft s
uff s
uff ly
uff ling
uff les
uff le
uff ins
uff ing
uff in
uff i
uff ers
uff ed
uff bo
uff b
uff al
ues day
ue ls
ue l
ue fully
ue f
ue b
udley k
udging ly
uddy d
udd ings
udd ing
udd in
udd ered
ud ying
ud y
ud le
ud ing
ud ience
ud ien
ud i
ud ger
ud g
ud ent
ud e
uck s
uck les
uck led
uck le
uck ily
uck i
uck et
uce y
ub s
u z
u ying
u y
u ve
u v
u um
u u
u rn
u ried
u pted
u pt
u ppose
u pp
u nate
u lf
u les
u le
u ld
u its
u it
u ir
u ins
u ing
u in
u ill
u il
u ide
u icy
u ick
u ic
u i
u ght
u gh
u ge
u et
u ess
u ent
u en
u ee
u ed
u ctor
u cted
u ct
u ces
u c
u bl
u beus
u be
u bby
u bbish
u bb
u at
u as
u ards
u ard
u ar
u all
u al
u ages
u ag
u ade
u ad
u able
u a
ty ard
to ons
to on
to le
to ld
to l
to ed
ting s
ther w
ther s
ther ins
ther in
then ed
the less
thday s
th y
th ons
th on
th ir
th d
tern s
tern ation
tern at
ter y
ter ward
ter w
ter r
ter ly
ter g
ter f
ter d
ter c
ten in
ten ed
ta ils
ta il
t w
t us
t urn
t ure
t ur
t upid
t up
t une
t un
t ud
t u
t ty
t ting
t tering
t tered
t ter
t t
t st
t ro
t ri
t ress
t re
t range
t ran
t ract
t ra
t r
t ou
t ory
t orm
t or
t ook
t one
t om
t n
t m
t ly
t ling
t les
t l
t it
t is
t ir
t ion
t im
t ill
t ile
t ig
t ies
t ie
t id
t ick
t ic
t fall
t f
t est
t es
t ep
t ention
t ent
t end
t ching
t ched
t ch
t c
t b
t ay
t at
t ast
t as
t ary
t arry
t ar
t ant
t and
t an
t all
t al
t aking
t aker
t ake
t ak
t air
t ains
t ain
t ack
sw ers
sw ering
sw ered
sw er
sw eep
sw allop
sw all
stri ls
stri ct
str on
str ings
str ing
stick s
stick ing
st y
st s
st rou
st rode
st rod
st ro
st rid
st ret
st ound
st ou
st op
st ool
st ood
st on
st om
st o
st n
st m
st ly
st ling
st les
st led
st le
st l
st it
st ir
st ing
st in
st if
st ie
st i
st h
st ery
st ers
st er
st ep
st ed
st ead
st e
st c
st ant
st anding
st and
st ances
st ance
st an
st al
st air
st age
st ag
st a
ss ure
ss u
ss s
ss on
ss m
ss ly
ss ive
ss ion
ss ing
ss ible
ss i
ss ed
ss board
ss bo
ss b
sp read
sp re
sp ort
sp ons
sp it
sp icious
sp ic
sp arent
sp aper
sp ap
sh ot
sh ad
set tled
set t
ser ved
ser ve
se v
se ly
se less
se le
se l
se ful
se f
se en
se ble
se b
se ated
se at
s y
s us
s ured
s urd
s ur
s ul
s u
s sed
s ro
s r
s q
s pe
s or
s ons
s ong
s on
s oming
s ome
s om
s ol
s n
s ly
s ley
s le
s l
s kin
s ked
s k
s iz
s ite
s it
s isted
s ist
s is
s ion
s in
s ill
s ign
s ight
s ig
s ie
s ided
s id
s ic
s ible
s i
s hing
s hed
s g
s fully
s form
s f
s ess
s es
s ers
s ents
s ent
s enius
s en
s d
s c
s b
s au
s ar
s and
s an
s al
s ag
ryffindor s
ry where
ry w
ry st
ry side
ry s
ry in
ry f
ry b
rum ents
ru pted
ru ctions
ru ct
row th
row ly
row ling
row ing
row ful
rove ment
round s
round ing
round ed
rough out
rough ly
rou s
rou ps
rou p
rou d
rou ching
rou ched
rou ch
rou c
rou ble
rou b
ross ly
ross b
ros sed
ros s
ror s
room st
room s
roll ered
rof it
rof ess
rod uce
rod u
ro ze
ro z
ro y
ro ving
ro v
ro st
ro se
ro pped
ro pp
ro phe
ro per
ro ped
ro pe
ro p
ro ot
ro op
ro ol
ro oked
ro ok
ro od
ro o
ro lled
ro l
ro ked
ro ke
ro k
ro gs
ro g
ro dd
ro ck
ro c
ro ble
ro bes
ro be
ro b
ro at
ro ast
ro as
ro ar
ro aned
ro an
ro am
ro aked
ro ak
ro ad
ro ached
ro a
rn it
rive led
riv et
riv ately
riv ate
riv als
riv al
rit ain
rit ably
ris to
ris ing
right ly
right ening
right ened
right en
rigg ling
rigg les
rigg led
rific es
ried ly
ride an
rid or
rid ing
rid icul
rid ic
rid i
rid g
rid ers
rid er
ric an
ric a
rib ing
ri ving
ri ver
ri ven
ri ved
ri ump
ri um
ri u
ri pt
ri ps
ri pping
ri pped
ri pp
ri ped
ri pe
ri p
ri ously
ri ous
ri ou
ri ls
ri lli
ri ll
ri l
ri ke
ri k
ri g
ri ft
ri ff
ri end
ri ek
ri e
ri ctly
ri ct
ri cks
ri ckle
ri ch
ri ce
ri bbled
ri bb
ri ar
ri an
ri al
ri ages
ri ag
ri a
rew olf
rew ol
rew et
rew ed
ret s
ret ly
ret e
ret ched
ret ary
ress ive
ress ion
ress ing
ress ed
res ident
res id
res h
rent ly
reme ly
rell a
reed om
reed ing
ree ze
ree z
ree ps
ree p
ree k
ree ing
ree ched
ree ch
ree c
red s
red it
red ibly
red ible
red ib
red i
red d
reat ure
reat u
reat n
reat ing
reat hing
reat hed
reat he
reat h
reat est
reat ening
reat en
reat ed
reat e
ream s
ream ing
ream ily
ream ed
read locks
read lock
read ing
re ver
re ve
re v
re st
re q
re pt
re p
re nched
re n
re mony
re mon
re mb
re m
re le
re l
re he
re g
re fe
re f
re ets
re et
re es
re ct
re ck
re cise
re ce
re c
re ble
re b
re ases
re as
re ar
re all
re al
re aking
re aked
re ak
re ady
re a
razil ian
raz y
raw n
raw ling
raw led
raw l
raw ing
raw b
rass ed
rap hs
ransfig ured
ransfig ur
ransf ixed
ransf er
rans form
range ments
range m
range ly
ran sp
ran k
ran ches
ran che
ran ch
ran ces
ran ced
ran ce
ran c
raft y
ract ive
ract ice
ract ic
rabb ling
rabb ed
ra very
ra ver
ra veled
ra ved
ra ve
ra v
ra u
ra re
ra pping
ra pp
ra ping
ra ped
ra ord
ra or
ra nd
ra it
ra is
ra ins
ra ined
ra il
ra ight
ra i
ra ff
ra f
ra cted
ra cing
ra c
ra b
r w
r v
r ut
r ust
r ushing
r us
r unt
r unn
r unk
r un
r umbled
r umb
r ugg
r uff
r ue
r ud
r uck
r ts
r t
r st
r se
r s
r ry
r ri
r re
r r
r p
r out
r ots
r other
r ot
r oo
r ons
r ong
r one
r on
r med
r m
r ly
r l
r k
r itten
r itt
r ite
r ised
r ise
r inting
r int
r inking
r ink
r ings
r ingotts
r ind
r ince
r in
r imble
r im
r he
r h
r ged
r g
r fere
r fe
r f
r d
r ches
r che
r ch
r c
r b
r ay
r ating
r ate
r atch
r at
r ashing
r as
r ary
r ar
r ant
r anger
r ang
r amb
r am
r all
r al
r aged
r age
r ade
r ad
r ack
qu it
qu ire
qu ip
qu int
qu in
qu ill
qu il
qu id
qu i
qu et
qu es
qu ee
qu e
qu aw
qu at
qu as
qu are
qu ar
qu a
pt ying
pt y
pt ure
pt u
pt ly
pt ion
pt ile
pt ied
pt i
pt hs
pt h
pt e
pper m
pp y
pp ro
pp os
pp ort
pp or
pp o
pp ly
pp ling
pp le
pp l
pp in
pp ily
pp ie
pp i
pp h
pp et
pp ery
pp ers
pp en
pp a
ple x
ple t
ple ss
ple asant
ple as
plain ing
plain ed
pl itting
pl it
pl ike
pl ied
pl ic
pl i
pl ay
pl ane
pl an
pl aced
pl ace
pl ac
ping t
phe w
phe t
ph y
ph ook
ph one
ph odel
ph od
ph ins
ph ant
per ly
per ience
per ien
per i
per ation
per ately
per ated
per ate
per at
pear ance
pe w
pe s
pe red
pe re
pe nded
pe nd
pe lls
pe ll
pe less
pe le
pe fully
pe ful
pe f
pe ed
pe ctor
pe cted
pe ct
pe ck
pe ci
pe c
pe ated
pe at
pe aring
pe aking
pe ak
pe a
p y
p w
p ut
p ur
p un
p uff
p u
p to
p ter
p st
p se
p ro
p ri
p ressed
p ress
p res
p re
p ra
p r
p pe
p ously
p ous
p our
p ou
p ot
p ortant
p ort
p ore
p or
p op
p oo
p ons
p on
p ol
p ok
p oc
p most
p ments
p ment
p m
p led
p k
p it
p ire
p ir
p ions
p ion
p inn
p ind
p in
p ily
p ill
p il
p ie
p idly
p id
p ical
p ic
p i
p hs
p ets
p et
p est
p ert
p ering
p ent
p ens
p ee
p d
p berry
p b
p at
p as
p art
p arent
p are
p ar
p aper
p ap
p an
p air
p ack
p a
oy s
oy les
oy ing
oy ed
oy al
own w
own st
own ri
own p
own ing
own f
own ed
ower ful
owd s
owd ers
owd ed
ow y
ow th
ow t
ow ls
ow led
ow l
ow ish
ow is
ow in
ow he
ow ful
ow f
ow ever
ow ers
ow ering
ow ered
ow els
ow el
ow een
ow e
ow bo
ow b
ow ard
ow ar
ove mber
ove mb
ove ly
ove ling
out t
out st
out s
out r
out l
out ing
out in
out he
out h
out ed
out e
ouse l
ousand s
ous y
ous in
our th
our t
our s
our ney
our n
our ists
our ist
our ish
our is
our ing
our g
our aging
our age
our ag
ount ing
ount ed
ount ain
ound ing
ound ed
oun ter
oun t
oun cing
ould n
ould ers
ould er
ould a
ought a
ough nuts
ough nut
ough n
oud y
oud s
oud ly
oud est
oud er
ou red
ou re
ou ple
ou p
ou nce
ou ls
ou lie
ou led
ou gal
ou g
ou ching
ou ches
ou che
ou ch
ou c
ou ble
ou b
ott les
ott le
ott en
other s
other ing
oth ly
oth less
oth le
ote ction
ot ting
ot ters
ot ter
ot st
ot os
ot or
ot og
ot o
ot ly
ot l
ot ions
ot ion
ot ing
ot i
ot hing
ot hes
ot hered
ot he
ot es
ot el
ot ed
ot ect
ot ch
ot c
ot b
ot at
ot alus
ot al
ot able
ot a
ost s
ost ly
ost led
ost ie
ost er
os s
os ite
os hes
os he
os h
os es
os ening
os al
os a
ortant ly
ort un
ort u
ort s
ort ra
ort ly
ort led
ort is
ort ing
ort h
ort ed
ort c
ort al
ort able
ort a
orrow ful
orn y
orn s
orn in
orn f
orn ers
orn ered
orn er
orn el
orn ed
orn e
orm y
orm s
orm ous
orm it
orm at
orm ally
orm al
organ a
org ons
ored om
ore ver
ore to
ore t
ore st
ore he
ore c
ord on
ord ing
ord inary
ord in
ord ed
or way
or w
or used
or us
or u
or ter
or st
or se
or ror
or rid
or ribly
or rib
or ri
or re
or r
or ping
or p
or ously
or ous
or ou
or mi
or med
or ld
or l
or ksh
or ks
or ked
or k
or ize
or iz
or ium
or ite
or it
or ill
or ice
or i
or get
or cy
or ces
or c
or b
or ation
or at
or ag
ops ided
ople s
ope fully
op ying
op y
op ular
op ul
op u
op ters
op ter
op kin
op k
op in
oot st
oot ed
oot b
oor s
ool s
ool ish
ool is
ook s
ook ing
ook in
ook ed
ood y
ood s
ood n
ood l
ood iness
ood in
ood en
ood ed
ood c
oo ves
oo v
oo ting
oo the
oo se
oo s
oo rer
oo re
oo ps
oo ping
oo p
oo o
oo ming
oo med
oo m
oo led
oo l
oo king
oo ked
oo k
oo h
oo f
oo ch
oo c
ont ro
ont r
ont in
ont hs
ont h
ont ain
ont a
ons ible
ons i
ons ense
ons ens
ons en
ong u
ong side
ong s
ong ly
ong ing
ong est
ong es
ong er
ong ed
onf ire
one y
one w
one ly
one l
ondu ctor
ondu cted
ondu ct
ond s
ond on
ond ly
ond ering
ond ered
ond e
ond ar
on ze
on z
on w
on v
on ut
on us
on u
on strictor
on stri
on st
on side
on ous
on ou
on or
on om
on o
on ne
on na
on n
on m
on light
on le
on l
on ks
on ke
on k
on j
on ite
on it
on ishing
on ish
on is
on ing
on in
on i
on er
on c
on ball
on b
on an
on ally
on all
on al
on ag
on ab
on a
omf rey
omf ort
omet im
omet h
ome w
ome one
ome m
ome how
ome h
ome f
ome b
omb ie
oman ia
om y
om st
om s
om pt
om ping
om pared
om p
om ot
om or
om my
om m
om it
om ised
om ise
om is
om in
om ily
om i
om es
om ers
om er
om ents
om ent
om en
om ed
om bs
om ach
om a
olum n
olum e
oll owed
oll en
oll ect
oll e
oll ar
oll apsible
oll aps
oll ap
olk iss
olf s
olf ing
ole nt
ole n
old y
old s
old ly
old ing
old er
old en
old ed
ol ves
ol ved
ol v
ol ution
ol ute
ol ut
ol ting
ol tergeist
ol terge
ol ter
ol ted
ol t
ol s
ol ors
ol ored
ol ore
ol or
ol m
ol ks
ol ite
ol it
ol is
ol ing
ol id
ol at
okes go
okes g
ok s
ok in
ok er
oh n
og w
og rap
og ra
og n
og ies
og ic
og i
og gy
og g
og ers
og er
og any
og an
ody g
od sw
od s
od ric
od ri
od na
od n
od l
od ies
od i
od er
od en
od ed
od e
od ded
od d
od c
od ay
ock ing
ock ers
ock ed
oc ul
oc om
oc ol
oc iously
oc i
oc ent
oc al
o zing
o zed
o z
o x
o very
o vering
o ver
o ven
o ved
o v
o ss
o pping
o pper
o pped
o pp
o other
o oth
o os
o oping
o oped
o op
o oming
o om
o oll
o ole
o og
o lo
o let
o les
o ist
o ise
o is
o inting
o inted
o int
o ins
o ing
o ined
o in
o ils
o iling
o il
o id
o ice
o ic
o i
o hs
o gh
o ff
o en
o ed
o e
o ble
o bl
o bes
o bb
o b
o at
o ast
o as
o ard
o ar
o aning
o an
o al
o ak
o Z
nt y
nt s
nt ry
nt ou
nt ly
nt ing
nt id
nt i
nt ed
nt ain
now y
now s
ndred s
nder st
nder ous
nder ing
nder head
nder he
nder ground
nder g
nd y
nd w
nd s
nd ri
nd re
nd r
nd om
nd o
nd m
nd ly
nd les
nd led
nd le
nd l
nd k
nd ished
nd is
nd ing
nd id
nd i
nd f
nd ered
nd eed
nd ee
nd e
nd ay
nd ary
nd ard
nd ar
nd al
nd ag
nd a
na re
na pped
na pp
na p
na h
na fraid
na f
na ble
na b
n z
n x
n w
n v
n us
n uff
n u
n ter
n st
n side
n se
n ri
n ra
n r
n q
n p
n oy
n own
n out
n oun
n ough
n ou
n other
n ort
n orm
n ore
n or
n oon
n ons
n on
n oc
n n
n m
n ly
n lo
n less
n le
n l
n k
n j
n ized
n ize
n iz
n ive
n itch
n it
n ion
n ing
n in
n im
n ig
n if
n ie
n id
n icorn
n ic
n i
n h
n ging
n ger
n ge
n fort
n f
n ever
n ets
n et
n est
n es
n ers
n ered
n ell
n ee
n ed
n cing
n ch
n ced
n c
n b
n ation
n atch
n at
n as
n aring
n ar
n am
n al
n ake
n ak
n ack
n D
mort al
mist res
mione l
mi rer
mi red
mi re
mi ling
mi les
mi led
mi le
mi l
mi go
mi g
mi ce
ment ating
ment at
ment ary
memb r
memb ers
memb ering
memb ered
med i
me m
me ly
me lting
me l
mb ur
mb rell
mb r
mb ol
mb ling
mb led
mb l
mb it
mb ers
mb ering
mb ered
mb ed
mb ar
mat ter
m wood
m w
m ured
m ur
m uff
m ud
m th
m t
m stick
m st
m se
m ro
m r
m pt
m per
m p
m out
m ous
m ou
m other
m ot
m ory
m orrow
m or
m ong
m ok
m o
m n
m mering
m mered
m ly
m l
m itting
m itted
m itt
m ite
m it
m is
m ir
m int
m ined
m ind
m ill
m id
m f
m eted
m et
m es
m er
m elling
m ell
m ch
m c
m ble
m ate
m art
m arm
m ark
m are
m anded
m and
m ally
m all
m al
m ak
m ain
m agic
m aged
m ag
m ade
m ad
lyther ins
ly t
ly ly
ly l
ly ing
ly in
lting s
lt s
lt h
lt ed
ls us
ls h
lock ed
lo ves
lo v
lo sed
lo se
lo s
lo ps
lo pped
lo pp
lo ping
lo ped
lo pe
lo p
lo op
lo om
lo ody
lo od
lo o
lo gy
lo g
lo ded
lo d
lo bb
lo b
lo ating
lo at
lo ak
llivand ers
lliant ly
lli v
ll y
ll owed
ll o
ll ing
ll in
ll id
ll et
ll es
ll ered
ll er
ll ent
ll en
ll e
ll ar
ll ap
ll ag
ll able
ll a
lk ily
liver in
ling s
ling ing
lin es
lin a
light s
light ed
lie ves
lie ved
lie ve
lie v
lie f
li ving
li va
li v
li od
li ked
li ke
li k
lf way
lf ric
lf ri
lf ish
lf is
lf he
lf ed
ley s
ley k
ley is
les kin
les k
les co
les c
leep y
leep s
leep less
leep le
leep ing
leep in
leep ily
led ore
led ge
led g
le x
le vis
le ver
le ven
le ve
le v
le toe
le to
le pt
le ph
le p
le nt
le nder
le nd
le n
le my
le ment
le man
le m
le light
le l
le h
le gg
le g
le f
le ev
le et
le er
le ens
le en
le ek
le ed
le e
le ction
le cted
le ct
le c
le br
le b
le at
le asure
le as
le arly
le aring
le ared
le ar
le an
le aming
le am
le ak
le ag
ldr ons
ldr on
ld y
ld s
ld re
ld n
ld ly
ld l
ld ish
ld is
ld ing
ld h
ld est
ld es
ld ered
ld er
ld en
ld ed
ld e
ld a
l ways
l way
l w
l very
l ver
l ve
l v
l ut
l ushed
l us
l ur
l un
l ums
l um
l uff
l ue
l ud
l uck
l u
l ter
l st
l se
l ry
l re
l r
l ps
l ple
l ph
l ped
l own
l ow
l out
l ous
l our
l ou
l ott
l ot
l ore
l or
l ood
l oo
l ong
l one
l ond
l on
l om
l ok
l n
l m
l ix
l ive
l itwick
l itw
l itt
l it
l ist
l ish
l is
l int
l ins
l ink
l ind
l im
l if
l ier
l iding
l id
l ick
l ice
l ic
l ia
l g
l ers
l er
l ch
l c
l bus
l b
l ay
l awed
l aw
l av
l ause
l au
l ation
l ati
l atform
l ated
l at
l ast
l ass
l as
l ared
l ar
l ap
l ant
l and
l an
l aming
l amel
l ame
l am
l akes
l ak
l airs
l air
l ain
l ag
l ad
l ack
l ace
l ac
l a
ksh ood
ksh ire
kn o
key s
ker ch
ke w
ke ly
k y
k ward
k w
k ul
k u
k to
k t
k ss
k p
k on
k o
k man
k m
k ly
k ling
k les
k led
k le
k l
k it
k iss
k is
k irt
k ir
k inn
k im
k ily
k ies
k idd
k id
k g
k ful
k f
k ets
k et
k es
k ery
k eeper
k eep
k ee
k b
k a
ject s
j um
j ud
j u
j oy
j ou
j ot
j or
j ok
j o
j in
j i
j et
j er
j e
j ar
j am
j ack
j a
izard ry
izard ing
izard in
iz zing
iz z
iz es
iz ened
iz en
ixt y
ixt ure
ixt h
ixt een
ixed ly
ix ir
ix es
ive led
itw it
itt led
itt ered
itt an
ither ing
ith fully
ith ful
ite m
itch craft
itch c
it ut
it ure
it u
it tering
it ter
it ory
it or
it o
it les
it le
it l
it ive
it ions
it ion
it in
it ic
it i
it hin
it he
it ed
it ches
it che
it c
it ated
it at
it al
it ain
it ably
it ab
it a
ister s
isten ing
isten ed
isten ce
ist y
ist w
ist ur
ist ress
ist res
ist re
ist ra
ist ory
ist or
ist mas
ist m
ist ling
ist led
ist le
ist l
ist ing
ist in
ist ant
ist ance
ist an
ist aking
ist ake
ist ak
iss ors
iss or
iss ing
iss fully
iss es
ishing ly
ish y
ish op
ish ments
ish ment
ish m
ise ly
ise less
ise le
is y
is to
is tering
is sed
is ply
is ple
is pe
is p
is ons
is on
is n
is ley
is le
is l
is ks
is ked
is k
is it
is is
is ion
is ins
is ing
is in
is ies
is ible
is i
is he
is g
is es
is ery
is er
is cu
is co
is c
is ap
is ag
is a
irthday s
irt s
irst ies
irst i
irst h
irror s
ire w
ire p
ire n
ire l
ire ctly
ire ction
ire cted
ire ct
ire c
ird s
ird os
ird est
ird c
ir th
ir rit
ir re
ir r
ir p
ir m
ir ls
ir led
ir l
ir king
ir k
ir its
ir it
ir ing
ir ily
ir id
ir i
ir cus
ir cle
ir ce
ir c
ir and
ir al
ir able
ir a
ip to
ip ol
ip ment
ions hip
ions h
ion less
ion le
ion ing
ion in
ion ed
ion al
int y
int s
int ment
int m
int h
inn s
inn ons
inn ier
inn i
inn et
inn est
inn ert
inn ers
inn er
inking ly
ink s
ink l
ink er
ing y
ing u
ing t
ing red
ing re
ing ott
ing ot
ing o
ing ly
ing led
ing le
ing l
ing in
ing es
ing ert
ing ers
ing ering
ing ered
ing er
ing ed
ing e
ing ar
ine mas
ine m
ine app
ine a
ind s
ind ow
ind or
ind m
ind ly
ind ling
ind l
ind ict
ind ic
ind i
ind el
ind ed
ind e
ind a
ince re
in x
in v
in ute
in ut
in us
in ue
in u
in ter
in st
in q
in p
in ous
in ou
in oc
in o
in ly
in l
in j
in itely
in ite
in it
in istry
in ister
in ist
in ished
in ish
in is
in ion
in in
in f
in est
in es
in er
in en
in ctly
in ct
in ched
in ch
in ced
in c
in bow
in b
in ating
in ated
in at
in ar
in ally
in all
in ach
in a
imble w
imb us
imb ing
imb ed
im y
im se
im ple
im ping
im per
im ped
im pe
im p
im ney
im n
im mering
im mered
im med
im m
im ly
im il
im id
im i
im en
im ed
im als
im al
im age
im ag
im a
ille gal
ille g
ill s
ill owing
ill ow
ill ing
ill in
ill icent
ill ic
ill i
ill ers
ill er
ill ed
ill age
ill ag
ill a
ile vel
ile ve
ile ts
ile t
ile nt
ile n
ild re
ild ly
ild ish
ild ings
ild ing
ild h
ild ered
ild er
ild a
il way
il w
il very
il ver
il v
il ty
il th
il k
il ity
il it
il ies
il ian
il i
il co
il c
il ar
ign s
ign ored
ign ore
ign or
ign ed
ign at
ight t
ight s
ight n
ight m
ight ly
ight ing
ight f
ight est
ight es
ight er
ight en
ight a
igh way
igh ing
igh b
igg led
igg le
ig z
ig ured
ig ure
ig ur
ig u
ig ta
ig t
ig s
ig or
ig her
ig gs
ig gered
ig ger
ig ge
ig ations
ig at
ig are
ig antic
ig ant
ig an
ig a
ift ly
iff y
iff ly
iff ling
iff ing
iff ily
iff ed
if ul
if u
if orm
if or
if ling
if l
if ied
if icent
if ic
if i
if fe
iew ers
ier cing
ier ced
ier ce
ier c
ien ic
ield s
ie ves
ie ved
ie ve
ie v
ie kins
ie k
ie ces
ie ce
ie c
ident ical
ident ic
ident ally
ide ways
ide way
ide w
ide red
ide o
ide ly
ide as
ide a
idd ling
idd le
idd ing
id st
id s
id or
id o
id n
id led
id l
id in
id ier
id ian
id i
id get
id ge
id g
id est
id ess
id es
id ers
id ents
id en
id den
id ay
id air
id a
icy cle
icul ty
icul t
icul ous
icul arly
ict us
ict ure
ict ory
ict ims
ict im
icorn s
icked ly
ick y
ick s
ick ly
ick ling
ick les
ick led
ick le
ick l
ick ing
ick ets
ick et
ick ering
ick ered
ick er
ick ening
ick ened
ick en
ick e
ich olas
ic us
ic u
ic s
ic or
ic op
ic ol
ic o
ic les
ic le
ic izing
ic iz
ic ion
ic ing
ic ic
ic ia
ic i
ic hes
ic he
ic es
ic er
ic ed
ic ately
ic ated
ic ate
ic at
ic ally
ic all
ib is
ib il
ib ble
ia ble
i vy
i ving
i ves
i vering
i ver
i ved
i v
i u
i q
i pping
i pp
i ped
i pe
i ou
i os
i or
i one
i od
i o
i lk
i les
i ked
i k
i ety
i eth
i ers
i ents
i ently
i ent
i bb
i ately
i ate
i at
i ased
i as
i ar
i ant
i als
i ally
i all
i al
i agon
i ag
i ac
i V
hs i
hing ly
hing ing
hin q
here ve
her w
her s
her ry
her m
her ing
her in
hen ever
hen ed
hee ling
hed u
head s
head e
he y
he w
he ver
he v
he t
he st
he ss
he se
he or
he o
he ll
he less
he le
he l
he ir
he i
he et
he ers
he ered
he er
he ed
he ck
he c
he ating
he at
he asant
he as
he art
he aring
he ard
he ar
he ap
he a
hat tering
hat ter
hat e
ha usted
ha ust
h y
h w
h ut
h urst
h urs
h ur
h uck
h u
h t
h rough
h rou
h room
h ro
h ristmas
h rist
h ri
h ree
h red
h re
h r
h out
h ouses
h ouse
h ous
h ound
h ould
h ough
h ou
h ot
h ost
h ose
h ort
h ore
h or
h op
h oot
h ook
h ood
h oo
h onest
h one
h on
h omora
h om
h ole
h old
h ok
h og
h od
h oc
h o
h n
h m
h ly
h less
h le
h l
h ite
h it
h is
h ires
h ire
h ir
h ion
h ins
h ink
h ine
h im
h ill
h ile
h ie
h ick
h ich
h i
h fully
h ful
h f
h d
h c
h b
h aw
h as
h arp
h arlie
h ar
h ap
h ant
h ang
h an
h amed
h ame
h am
h all
h al
h aking
h ake
h ak
h ain
h ag
h ad
h ack
gr am
go bl
gl ish
gl and
ging s
ging ly
ght y
ght t
ght s
ght n
ght m
ght ly
ght ing
ght f
ght est
ght es
ght er
ght en
ght ed
ght a
gh way
gh w
gh out
gh ou
gh orn
gh or
gh n
gh ly
gh l
gh ing
gh b
gg s
gg ling
gg les
gg led
gg le
gg est
gg age
gg ag
get t
get s
get her
get ful
get ed
ger in
ge ons
ge on
ge nd
ge m
ge ly
ge lin
ge l
ge ist
ge is
ge b
g z
g w
g usted
g ust
g us
g ur
g un
g um
g ue
g u
g then
g t
g st
g ry
g row
g rou
g ri
g re
g ra
g oy
g ott
g ory
g or
g ons
g on
g n
g m
g ly
g ling
g les
g led
g le
g ized
g iz
g it
g ist
g is
g ins
g inn
g ine
g in
g ien
g ie
g id
g ic
g ian
g i
g her
g he
g ge
g ently
g ent
g en
g b
g at
g as
g ant
g an
g ain
g ag
g a
ful ness
ful n
fter ward
fter n
ft y
ft s
ft ly
ft est
ft ed
fort un
fort u
fort ing
fort able
form s
form ation
form at
fl akes
ff y
ff s
ff room
ff ro
ff ra
ff ort
ff ord
ff or
ff ly
ff ling
ff led
ff le
ff l
ff ing
ff ind
ff in
ff ic
ff i
ff ers
ff ering
ff er
ff ed
ff ect
ff e
ff b
ff al
ff airs
ff air
ff a
fere nt
fere n
fere es
fere ed
fect s
fe ree
fe nd
fe ly
fe ctly
fe ated
fe at
fall s
f y
f way
f w
f use
f us
f ull
f uddle
f udd
f ud
f u
f s
f ru
f ro
f ric
f ri
f rey
f re
f ra
f r
f oy
f ound
f ou
f ord
f on
f old
f o
f ly
f lo
f ling
f led
f ixed
f ix
f it
f is
f irst
f ire
f ir
f ink
f ing
f ind
f in
f ily
f ig
f if
f ied
f icul
f ic
f i
f he
f h
f ety
f et
f est
f ess
f es
f ern
f ering
f er
f ense
f ening
f en
f ee
f ed
f c
f b
f ather
f at
f ast
f ash
f as
f ar
f al
f air
f ac
f a
ey s
ey lo
ex plod
ex plo
ex p
ex ce
ew ter
ew t
ew els
ew el
ew ed
ew e
ever the
ever t
ever al
ev on
ev ill
ev i
ev es
etch in
et unia
et un
et um
et u
et ts
et tle
et ting
et ter
et t
et rified
et rific
et rif
et ri
et r
et ly
et les
et le
et ing
et im
et i
et hing
et her
et he
et ful
et f
et est
et es
et ers
et er
et ent
et en
et c
et ball
et b
et al
et a
est ry
est ro
est ricted
est ri
est ly
est ion
est iny
est ing
est ined
est in
est ig
est ed
ess ing
ess in
ess i
ess erts
ess ert
ess er
ess ed
ess ary
ess ar
ess age
ess ag
es to
es ter
es per
es pe
es p
es n
es k
es ire
es ig
es ident
es ide
es id
es i
es g
es ert
es er
es e
es day
es d
es c
ert ips
ert ime
ert im
ert ie
ert i
ert ed
ert ain
ers u
ers on
ers er
ers b
ers ault
ers au
ern o
ern ly
ern ed
ern eath
ern e
ern al
ermione l
erm ined
ering ue
ering u
ering s
ere st
ere nce
ere n
ere mony
ere mon
er w
er ves
er ved
er ve
er v
er u
er to
er st
er self
er se
er rily
er ries
er ri
er r
er p
er ously
er ous
er ou
er oc
er o
er mi
er ly
er lin
er l
er ks
er king
er ked
er k
er is
er iously
er ious
er in
er ie
er i
er he
er haps
er h
er ged
er g
er fully
er ful
er form
er fe
er f
er d
er cy
er cise
er cing
er ched
er ch
er ce
er c
er bo
er b
er ate
er at
er ald
er al
er ably
er able
er ab
ep y
ep ut
ep s
ep le
ep ing
ep in
ep ily
ep i
ep aper
ep ap
ention in
ention ed
ent ury
ent uri
ent ure
ent u
ent ran
ent r
ent le
ent ists
ent ist
ent is
ent ions
ent ing
ent in
ent ic
ent i
ent ered
ent een
ent e
ent at
ent ary
ent ar
ent ally
ent all
ent acles
ent acle
ent a
ense less
ens ion
ens ible
ens es
ening s
end s
end ly
end ing
end ed
en ying
en y
en ve
en v
en ter
en r
en ou
en or
en nis
en n
en ly
en l
en j
en ix
en in
en ic
en i
en h
en g
en er
en eath
en e
en ch
en ces
en ce
en c
en al
en a
ell y
ell s
ell ow
ell o
ell ions
ell ion
ell in
ell i
ell ets
ell et
ell ed
ell e
el w
el v
el tering
el ter
el p
el ius
el ight
el i
el come
el c
ek s
ek ly
ek ing
ef y
ef c
eep s
eep ly
eep est
eech less
ee zed
ee ze
ee z
ee v
ee re
ee m
ee l
ee ker
ee k
ee ing
ee ble
ee b
edd y
edd ling
edd lin
edd le
ed y
ed w
ed t
ed s
ed room
ed ro
ed r
ed own
ed ow
ed ore
ed om
ed o
ed n
ed ly
ed les
ed led
ed le
ed l
ed ing
ed in
ed i
ed ging
ed gers
ed ged
ed ge
ed g
ed ed
ed e
ed ded
ed alus
ed al
ed a
ect s
ect ive
ect ing
eal ous
eal ed
eak ers
eak ed
e zing
e zed
e z
e xt
e way
e very
e ven
e ve
e us
e u
e ry
e ree
e q
e pping
e pped
e pp
e pe
e ous
e ou
e or
e op
e ons
e one
e on
e o
e nder
e my
e mort
e mies
e mi
e ment
e memb
e me
e mber
e mb
e ly
e ling
e lie
e lf
e led
e le
e ld
e ked
e j
e ize
e iz
e ither
e it
e is
e ir
e ing
e in
e il
e i
e he
e h
e gs
e g
e fully
e fore
e ets
e et
e es
e er
e ction
e cted
e ck
e ch
e ce
e c
e b
e ave
e ather
e ater
e asy
e ast
e as
e art
e ars
e arly
e aring
e ant
e ans
e an
e am
e ally
e all
e aking
e ah
e ady
e a
ding ton
ding t
den ly
dd re
dd ment
dd m
dd ly
dd ish
dd ing
dd er
dd ed
dd ball
dd b
day s
d w
d v
d ums
d um
d uced
d u
d t
d s
d ry
d ro
d ri
d re
d r
d ow
d ou
d os
d or
d oor
d om
d o
d ness
d n
d mi
d m
d ly
d ling
d lin
d le
d l
d k
d itch
d it
d ish
d is
d in
d head
d he
d h
d ges
d ged
d ge
d g
d f
d est
d es
d ers
d ered
d ent
d eed
d den
d c
d b
d at
d as
d ar
d an
d al
d able
d a
cy cle
cus sing
cus s
cus es
cu le
cu its
cu ed
cture s
ct ur
ct ually
ct u
ct s
ct ive
ct ite
ct it
ct ing
ct ice
ct ic
ct i
ct at
ct ac
ct a
cr ack
con ut
con is
col m
coat s
co very
co ver
co pe
co iling
cle s
cl ud
cl aw
cl airs
ckle h
ck y
ck w
ck up
ck u
ck p
ck ons
ck oned
ck on
ck n
ck m
ck ly
ck ling
ck les
ck led
ck l
ck i
ck g
ck f
ck ety
ck ets
ck et
ck ers
ck er
ck en
ck e
ck b
ck ag
ck a
cise ly
ci ent
ci ally
ci al
ched u
che n
che my
che m
ch y
ch way
ch w
ch up
ch u
ch t
ch os
ch olas
ch ol
ch oes
ch oc
ch o
ch ment
ch m
ch ley
ch less
ch les
ch le
ch in
ch ief
ch ie
ch i
ch c
ch ant
ch anged
ch ange
ch ang
ch an
ch airs
ch air
ch a
ced own
ce y
ce rer
ce re
ce pted
ce p
ce mber
ce mb
ce m
ce ly
ce ll
ce led
ce l
ce ive
ce i
ce ful
ce f
cc ur
cc ord
cc er
cc asions
cc as
c uts
c ut
c urse
c urs
c urity
c urd
c ur
c up
c um
c uli
c ular
c ul
c ud
c s
c ro
c rific
c rif
c rib
c ri
c ret
c ree
c red
c re
c ra
c ow
c ove
c our
c ount
c oun
c ou
c ot
c ore
c ord
c or
c oo
c omf
c om
c og
c od
c lo
c ling
c led
c itement
c ite
c it
c is
c ious
c in
c im
c il
c ies
c ide
c id
c her
c essor
c ess
c ertainly
c ert
c ern
c er
c en
c ce
c au
c ated
c at
c aster
c ast
c ase
c as
c ary
c ars
c ared
c ard
c ar
c ap
c and
c ame
c am
c all
c al
c ake
c ak
c age
c ag
c abbers
c abb
c K
c G
c D
bs ol
br ity
br it
br ating
br ated
br ate
br at
br as
br ary
br ar
bo x
bo lo
bo at
ble w
ble ts
ble t
ble m
ble ed
bl ins
bl inking
bl ink
bl in
bl ic
bell ions
be lie
be ar
bb ot
bb on
bb ly
bb it
bb is
bb ies
bb i
bb ers
bb ered
bb e
bb age
bb ag
ball s
b v
b urn
b ur
b ul
b u
b tle
b ted
b t
b st
b rows
b row
b roken
b ro
b ride
b rid
b ri
b rell
b re
b ra
b ound
b ottom
b ott
b ot
b ors
b or
b ony
b on
b omb
b om
b ol
b od
b ock
b n
b ly
b ling
b led
b j
b it
b is
b ing
b ination
b in
b il
b ies
b ie
b id
b i
b f
b ers
b eric
b ered
b er
b ed
b ble
b ar
b ane
b and
b an
b ag
b acks
b ab
ay s
ay l
ay ish
ay is
ay ing
ay in
ay f
ay ers
ay er
ay b
awn y
awn s
awn ing
awn ed
aw ling
aw king
aw ked
aw k
aw eed
aw e
aven s
aven cl
aven c
ave nder
ave ment
ave m
ave lin
ave l
av y
av ored
av ore
av ily
av ier
av i
ault s
au ve
au ld
au l
au gh
au g
atur day
atur ally
atur al
ation ing
ation al
ating ly
atic ally
ati ves
ati ently
ati ent
ather s
ather m
ather ing
ath room
ath ro
ath ild
ath i
ater y
ater i
ate way
ate ful
ate f
atch y
atch work
atch wor
atch w
atch in
at y
at ure
at ues
at ue
at u
at ty
at ting
at tered
at ter
at ten
at ted
at t
at s
at ro
at red
at re
at r
at ors
at or
at o
at n
at ly
at l
at ive
at il
at ie
at hing
at hered
at hed
at he
at f
at est
at es
at ers
at ering
at ered
at en
at ches
at che
at c
at as
at a
ast y
ast s
ast le
ast ing
ast ily
ast ies
ast ier
ast ie
ast i
ast ful
ast f
ast est
ast es
ast ered
ast en
ast e
ass y
ass word
ass w
ass room
ass ro
ass ive
ass ing
ass i
ass es
ass ersby
ass ers
ass ed
ass age
ass ag
ashion ed
ash y
ase ball
ase b
asant s
as uring
as ured
as ur
as ually
as u
as ps
as ping
as per
as ped
as p
as ons
as on
as n
as m
as ley
as le
as king
as k
as ion
as ing
as in
as ier
as ic
as i
as he
as ers
as c
as an
as a
arth y
art st
art oon
art o
art n
art ments
art ment
art m
art ly
art led
art ing
art ies
art icul
art ic
art i
art her
art en
art ed
art e
art an
ars pl
ars p
ars ighted
ars ight
ars h
arry ing
arp ly
arn ing
arn ess
arn ed
arm y
arm uff
arm th
arm ing
arm in
arm er
arm al
ark n
ark ly
ark ling
ark ins
ark in
ark en
ark ably
ark ab
ark a
arent s
are t
are st
are s
are r
are ly
are les
are le
are ful
are f
ard ry
ard ro
ard ium
ard ing
ard ine
ard in
ard i
ard er
ard ens
ard en
ard ed
ar ved
ar ve
ar v
ar uff
ar u
ar se
ar row
ar ried
ar ri
ar red
ar re
ar rass
ar r
ar per
ar ouse
ar ou
ar oon
ar old
ar o
ar locks
ar lo
ar led
ar le
ar l
ar ked
ar in
ar ian
ar i
ar h
ar ging
ar gest
ar ger
ar ged
ar g
ar ful
ar f
ar cus
ar ching
ar ched
ar ch
ar ce
ar c
ar ble
ar b
ar ating
ar ately
ar ated
ar ate
ar at
ar ant
ar ance
ar an
ar age
ar ag
ar ad
ar ace
ar able
ar a
app y
app ro
app o
app led
app le
app ie
ape less
ap sed
ap peared
ap pe
ap ot
ap or
ap on
ap ing
ap est
ap es
antic ally
ant ul
ant u
ant s
ant rum
ant r
ant ments
ant m
ant ly
ant in
ant ime
ant im
ant ered
ant el
ant e
ant ast
ans y
ank ss
ank ly
ank ets
ank et
anger ously
anger ous
ang u
ang ling
ang les
ang le
ang in
ang ers
and y
and s
and les
and le
and ies
and i
and ers
and ered
and er
and e
and ard
and al
and ages
and aged
and ag
and a
an wh
an w
an tern
an ter
an sw
an qu
an q
an na
an n
an ked
an ized
an iz
an ity
an ite
an it
an ishing
an ished
an ish
an is
an in
an icked
an ick
an ic
an ia
an i
an ets
an et
an es
an el
an ch
an c
an berry
an b
an at
an as
an ar
an an
an ag
an a
amp s
amp ire
amp ions
amp ing
amp en
ame k
amb ling
amb led
amb ered
am us
am u
am s
am roll
am ro
am pl
am ped
am ous
am ou
am n
am ming
am mering
am mered
am m
am ined
am ine
am in
am ily
am il
am i
am era
am er
am atic
am at
am as
am and
am aged
am age
am ag
am a
alus l
alm s
alm ly
alm ing
all s
all ows
all owed
all ow
all oping
all oped
all oon
all o
all ing
all est
all es
all ery
all er
all en
all ed
all e
alk in
al ue
al u
al ty
al th
al tered
al t
al ry
al ous
al ou
al os
al om
al o
al nut
al n
al iz
al ing
al i
al er
al ed
al col
al c
al bert
al b
al at
al ancing
al an
al ag
al ade
al ad
al act
al ace
al a
ake l
ak y
ak s
ak ly
ak in
ak ily
ak i
ak f
ak ery
ak ers
ak en
air c
ain ting
ain t
ain st
ain ing
ain fully
ain ful
ain f
ail v
ail s
ah og
ah ar
agon ally
agm ite
agm it
age ways
age way
age ous
ag ue
ag u
ag sh
ag ree
ag re
ag r
ag ons
ag n
ag le
ag ined
ag ine
ag in
ag i
ag gy
ag gered
ag ger
ag ge
ag g
ag er
ag all
ag a
aff room
aff ling
aff le
af ening
ad ually
ad u
ad s
ad owed
ad ow
ad n
ad master
ad mas
ad m
ad ly
ad lock
ad lo
ad less
ad le
ad l
ad ium
ad ish
ad is
ad ing
ad in
ad ily
ad ied
ad i
ad ge
ad g
ad f
ad es
ad er
ad en
ad ding
ad d
ad a
act ite
act it
ack w
ack p
ack n
ack ling
ack led
ack le
ack l
ack ing
ack g
ack ets
ack et
ack ers
ack er
ack ed
ack b
ack age
ack ag
ach ing
ace ls
ace l
ace ful
ac up
ac ular
ac ul
ac u
ac s
ac on
ac her
ac he
ac ation
ac at
ac D
abb ing
abb ages
abb age
abb ag
ab y
ab in
ab ies
ab ble
ab ags
ab ag
a zing
a zed
a ze
a z
a x
a ver
a ved
a ut
a ust
a us
a urs
a ur
a unt
a un
a ptain
a pt
a pping
a pped
a or
a o
a les
a le
a j
a its
a iting
a it
a ist
a ise
a is
a iry
a ired
a ily
a iling
a id
a i
a he
a argh
a ar
a V
\ âĢ�
\ �
Z ab
Z a
Z E
Z AR
Z A
Yes ter
YTH ING
YTH E
Y v
Y or
Y o
Y ew
Y O
Y ING
Y IN
Y I
Y F
What e
Wh is
Wh i
We l
We ir
WAR D
W ri
W r
W ou
W or
W oo
W ond
W o
W izard
W iz
W it
W is
W ip
W ingard
W ing
W in
W ight
W i
W hing
W he
W es
W ed
W atch
W at
W art
W ar
W and
W an
W al
W a
W O
W N
W I
W H
W A
V olde
V old
V ir
V ind
V in
V i
V ern
V er
V e
V au
V an
V amp
V am
V a
V C
Un us
Un fort
UD LE
U s
U ri
U r
U nt
U nder
U nd
U T
U S
U R
U L
U CH
U C
The or
The m
Th r
Th ou
Th om
Th ir
Th ie
Th an
TCH C
T yp
T y
T w
T urp
T ur
T u
T ry
T rou
T ro
T rick
T ri
T re
T ransfig
T ransf
T rans
T ran
T ow
T ot
T on
T om
T ok
T od
T ip
T im
T i
T hing
T er
T ed
T e
T ak
T a
T UD
T U
T T
T S
T R
T OR
T O
T H
T ER
T E
T C
St ud
St ir
St ar
St alagm
St al
See m
See k
Se c
Sc ow
ST UDENT
ST UDE
ST UD
S udden
S ud
S u
S to
S p
S or
S omet
S om
S na
S n
S m
S lyther
S ly
S li
S le
S l
S in
S id
S i
S ever
S event
S ev
S en
S ch
S at
S am
S a
S U
S N
S LE
S E
S C
Ru be
Re memb
RYFFINDOR S
RY F
RA S
RA F
RA C
R om
R o
R is
R id
R i
R es
R ep
R ail
R a
R W
R U
R T
R S
R R
R ONT
R O
R M
R IN
R I
R E
R D
R C
R B
Qu it
Qu ir
Qu iet
Qu idd
Qu id
Qu i
Qu est
Qu es
Qu ent
Qu ar
Qu a
Pet rific
P ut
P u
P t
P rote
P rof
P ro
P ri
P ret
P refect
P re
P r
P owd
P ow
P osit
P os
P or
P om
P ok
P o
P le
P in
P i
P h
P ee
P e
P at
P as
P ark
P ar
P an
P ad
P a
P UFF
P U
P OT
P O
P A
Or d
OU R
OR W
OR T
OR S
OR R
OR E
OR C
OR B
OO K
O ver
O v
O u
O ther
O t
O oooo
O oo
O o
O llivand
O lli
O ll
O li
O l
O k
O ff
O d
O c
O b
O ak
O a
O W
O P
O NE
O N
O ME
O M
O LD
O L
O K
O ING
O IN
O I
O F
No b
NT S
NE VE
N umb
N um
N u
N or
N on
N it
N in
N im
N ight
N ic
N i
N ev
N ast
N as
N am
N a
N Y
N S
N OTH
N OT
N K
N G
N D
N C
N A
Min er
Me an
M ugg
M u
M ou
M ot
M orn
M or
M ond
M on
M o
M is
M ir
M imble
M im
M id
M i
M er
M en
M c
M ay
M as
M ar
M ap
M an
M alf
M al
M ak
M agic
M ag
M acDou
M ac
M a
M Y
M S
M R
M P
M OTORC
M OTOR
M OT
M OR
M O
M B
M A
Le a
LI E
LE S
LE P
LE N
LE DOR
LE D
LD E
L uck
L u
L ot
L or
L oo
L ongb
L ong
L ond
L on
L ock
L o
L itt
L it
L ist
L is
L if
L ibr
L i
L ev
L at
L ad
L a
L YTHERIN
L YTHER
L YTH
L YT
L Y
L UM
L U
L T
L O
L B
K n
K inn
K ing
K in
K i
K ent
K en
K ee
K e
K at
K a
K S
K P
K I
K E
J up
J u
J ord
J or
J o
J im
J ig
J i
J ell
J e
J am
J a
In vestig
In vest
In v
IZ AR
ITCH C
IN DOR
IN D
IC K
I re
I r
I nd
I m
I d
I ck
I c
I V
I T
I S
I M
I LE
I L
I E
I DOR
I D
I AR
I A
He l
HA V
HA M
H ur
H ung
H un
H ull
H u
H ou
H or
H onest
H on
H og
H o
H mm
H ed
H ard
H ar
H an
H al
H ag
H a
H UFFLEP
H UFFLE
H UFF
H U
H OG
H O
H ING
H IN
H I
H E
H C
H AR
Good n
G um
G ulp
G ul
G uff
G u
G ryffind
G ryff
G ry
G rou
G riph
G ri
G red
G re
G ra
G oy
G ott
G or
G on
G l
G in
G i
G e
G allop
G all
G a
G WARTS
G WART
G WAR
G W
G RYFFIN
G RYFF
G RY
G R
G O
G IC
G I
G E
For g
FF LE
FF IN
F unn
F un
F ud
F u
F ro
F rid
F ri
F re
F r
F ou
F ort
F ore
F oll
F o
F ly
F letch
F let
F le
F ire
F ir
F innig
F inn
F ind
F il
F if
F i
F et
F es
F er
F ee
F e
F at
F ant
F an
F am
F all
F a
F T
F R
F O
F LE
F L
F IN
F I
ET T
ER IN
E y
E very
E ve
E v
E m
E lf
E le
E l
E gg
E g
E e
E as
E ar
E ag
E a
E Y
E VE
E V
E S
E P
E NT
E N
E M
E L
E IZ
E I
E H
E E
E D
E A
Dursley ish
Dou gal
Dad d
DOR S
DOR E
D urs
D ur
D unn
D un
D umbled
D umb
D um
D ud
D uck
D u
D ro
D ri
D rag
D ra
D r
D ow
D ot
D or
D itt
D it
D is
D ink
D in
D ifficul
D iff
D if
D i
D ev
D et
D est
D es
D ep
D en
D el
D ef
D ee
D ed
D e
D ay
D ar
D ang
D an
D a
D UD
D U
D RY
D R
D O
D LE
D L
D E
Ch uck
Ch o
Ch as
CH OOL
CH OO
CH O
CH C
C uri
C ur
C u
C ro
C ri
C rabb
C ra
C r
C our
C ou
C or
C op
C onf
C on
C omet
C om
C od
C o
C lo
C le
C l
C ir
C i
C ert
C er
C ent
C en
C e
C au
C at
C ap
C al
C ak
C a
C YCLES
C YCLE
C YC
C Y
C RA
C R
C OR
C O
C LE
C L
C K
C E
C A
Bl u
Bl im
Bl ast
Be h
Be c
B us
B un
B ulst
B ul
B ud
B u
B rou
B rockleh
B rockle
B ro
B ri
B re
B raz
B ra
B r
B oy
B ot
B or
B ook
B oo
B on
B od
B o
B lo
B leaa
B lea
B le
B it
B ir
B ill
B i
B ew
B es
B er
B ell
B el
B ee
B ed
B at
B ark
B ar
B an
B ag
B a
B U
B OO
B O
B LE
B L
B I
B E
At t
An uthin
An ut
AR T
AR M
AR D
A un
A u
A st
A rou
A r
A p
A loh
A lo
A he
A g
A f
A d
A c
A bs
A bb
A b
A ar
A a
A Y
A V
A T
A S
A NT
A N
A M
A L
A K
A G
A F
A D
A CH
A C
?âĢĿ )
? âĢ�
? �
9 4
8 2
7 3
7 0
6 3
4 7
4 5
3 8
3 7
3 1
1 9
1 7
1 6
1 4
1 1
0 9
. âĢ�
. �
, âĢ�
, �
( âĢľ
( âĢ�
( �
' .
!âĢĿ )
! âĢ�
! �
u s
u n
t s
t o
t i
p o
n t
k i
i l
i c
d i
c a
v e
k e
e s
e d
U F
H H
h h
b a
m a
p h
n s
a a
m m
u r
s e
s a
m u
� �
t e
e r
u f
d e
n g
e m
s s
. .
.. .
o o
� �
